#ifndef NN_H
#define NN_H


unsigned int nn_len = 19984;
unsigned char nn[] = {
 0x1c, 0x00, 0x00, 0x00, 0x54, 0x46, 0x4c, 0x33, 0x14, 0x00, 0x20, 0x00,
  0x1c, 0x00, 0x18, 0x00, 0x14, 0x00, 0x10, 0x00, 0x0c, 0x00, 0x00, 0x00,
  0x08, 0x00, 0x04, 0x00, 0x14, 0x00, 0x00, 0x00, 0x1c, 0x00, 0x00, 0x00,
  0x94, 0x00, 0x00, 0x00, 0xec, 0x00, 0x00, 0x00, 0xb4, 0x45, 0x00, 0x00,
  0xc4, 0x45, 0x00, 0x00, 0x9c, 0x4d, 0x00, 0x00, 0x03, 0x00, 0x00, 0x00,
  0x01, 0x00, 0x00, 0x00, 0x10, 0x00, 0x00, 0x00, 0x00, 0x00, 0x0a, 0x00,
  0x10, 0x00, 0x0c, 0x00, 0x08, 0x00, 0x04, 0x00, 0x0a, 0x00, 0x00, 0x00,
  0x0c, 0x00, 0x00, 0x00, 0x1c, 0x00, 0x00, 0x00, 0x38, 0x00, 0x00, 0x00,
  0x0f, 0x00, 0x00, 0x00, 0x73, 0x65, 0x72, 0x76, 0x69, 0x6e, 0x67, 0x5f,
  0x64, 0x65, 0x66, 0x61, 0x75, 0x6c, 0x74, 0x00, 0x01, 0x00, 0x00, 0x00,
  0x04, 0x00, 0x00, 0x00, 0x94, 0xff, 0xff, 0xff, 0x0d, 0x00, 0x00, 0x00,
  0x04, 0x00, 0x00, 0x00, 0x07, 0x00, 0x00, 0x00, 0x64, 0x65, 0x6e, 0x73,
  0x65, 0x5f, 0x37, 0x00, 0x01, 0x00, 0x00, 0x00, 0x04, 0x00, 0x00, 0x00,
  0x2a, 0xba, 0xff, 0xff, 0x04, 0x00, 0x00, 0x00, 0x0d, 0x00, 0x00, 0x00,
  0x64, 0x65, 0x6e, 0x73, 0x65, 0x5f, 0x34, 0x5f, 0x69, 0x6e, 0x70, 0x75,
  0x74, 0x00, 0x00, 0x00, 0x02, 0x00, 0x00, 0x00, 0x34, 0x00, 0x00, 0x00,
  0x04, 0x00, 0x00, 0x00, 0xdc, 0xff, 0xff, 0xff, 0x10, 0x00, 0x00, 0x00,
  0x04, 0x00, 0x00, 0x00, 0x13, 0x00, 0x00, 0x00, 0x43, 0x4f, 0x4e, 0x56,
  0x45, 0x52, 0x53, 0x49, 0x4f, 0x4e, 0x5f, 0x4d, 0x45, 0x54, 0x41, 0x44,
  0x41, 0x54, 0x41, 0x00, 0x08, 0x00, 0x0c, 0x00, 0x08, 0x00, 0x04, 0x00,
  0x08, 0x00, 0x00, 0x00, 0x0f, 0x00, 0x00, 0x00, 0x04, 0x00, 0x00, 0x00,
  0x13, 0x00, 0x00, 0x00, 0x6d, 0x69, 0x6e, 0x5f, 0x72, 0x75, 0x6e, 0x74,
  0x69, 0x6d, 0x65, 0x5f, 0x76, 0x65, 0x72, 0x73, 0x69, 0x6f, 0x6e, 0x00,
  0x11, 0x00, 0x00, 0x00, 0xc4, 0x44, 0x00, 0x00, 0xbc, 0x44, 0x00, 0x00,
  0xac, 0x43, 0x00, 0x00, 0x94, 0x43, 0x00, 0x00, 0x04, 0x43, 0x00, 0x00,
  0xf4, 0x41, 0x00, 0x00, 0xe4, 0x3f, 0x00, 0x00, 0xd4, 0x28, 0x00, 0x00,
  0xc4, 0x08, 0x00, 0x00, 0xb4, 0x00, 0x00, 0x00, 0xac, 0x00, 0x00, 0x00,
  0xa4, 0x00, 0x00, 0x00, 0x9c, 0x00, 0x00, 0x00, 0x94, 0x00, 0x00, 0x00,
  0x8c, 0x00, 0x00, 0x00, 0x6c, 0x00, 0x00, 0x00, 0x04, 0x00, 0x00, 0x00,
  0xea, 0xba, 0xff, 0xff, 0x04, 0x00, 0x00, 0x00, 0x58, 0x00, 0x00, 0x00,
  0x0c, 0x00, 0x00, 0x00, 0x08, 0x00, 0x0e, 0x00, 0x08, 0x00, 0x04, 0x00,
  0x08, 0x00, 0x00, 0x00, 0x10, 0x00, 0x00, 0x00, 0x28, 0x00, 0x00, 0x00,
  0x00, 0x00, 0x06, 0x00, 0x08, 0x00, 0x04, 0x00, 0x06, 0x00, 0x00, 0x00,
  0x04, 0x00, 0x00, 0x00, 0x01, 0x00, 0x00, 0x00, 0xea, 0x03, 0x00, 0x00,
  0x00, 0x00, 0x0a, 0x00, 0x10, 0x00, 0x0c, 0x00, 0x08, 0x00, 0x04, 0x00,
  0x0a, 0x00, 0x00, 0x00, 0x02, 0x00, 0x00, 0x00, 0x02, 0x00, 0x00, 0x00,
  0x04, 0x00, 0x00, 0x00, 0x06, 0x00, 0x00, 0x00, 0x32, 0x2e, 0x31, 0x35,
  0x2e, 0x30, 0x00, 0x00, 0x4e, 0xbb, 0xff, 0xff, 0x04, 0x00, 0x00, 0x00,
  0x10, 0x00, 0x00, 0x00, 0x32, 0x2e, 0x33, 0x2e, 0x30, 0x00, 0x00, 0x00,
  0x00, 0x00, 0x00, 0x00, 0x00, 0x00, 0x00, 0x00, 0x44, 0xb4, 0xff, 0xff,
  0x48, 0xb4, 0xff, 0xff, 0x4c, 0xb4, 0xff, 0xff, 0x50, 0xb4, 0xff, 0xff,
  0x54, 0xb4, 0xff, 0xff, 0x7e, 0xbb, 0xff, 0xff, 0x04, 0x00, 0x00, 0x00,
  0x00, 0x08, 0x00, 0x00, 0x00, 0xfe, 0xb4, 0x0f, 0xec, 0x54, 0xd4, 0x1f,
  0xf4, 0xc1, 0x1a, 0xea, 0x07, 0xf3, 0x08, 0xc8, 0xfe, 0x01, 0xe0, 0x0c,
  0x15, 0xb2, 0xa9, 0x00, 0x09, 0xfa, 0xb7, 0x01, 0xee, 0xef, 0x0b, 0x1b,
  0xd7, 0x0a, 0x18, 0xe5, 0x0c, 0x09, 0xe9, 0x09, 0xf0, 0x32, 0xca, 0xea,
  0xc3, 0x13, 0xd1, 0x0c, 0xfd, 0x19, 0xf8, 0xec, 0xf4, 0xd6, 0xfb, 0x0a,
  0xe4, 0xf1, 0xdf, 0x03, 0x05, 0x1e, 0xec, 0x1e, 0xf2, 0xf8, 0x02, 0x0c,
  0x1d, 0x29, 0x18, 0x09, 0x16, 0xc6, 0x1d, 0xe2, 0xfd, 0x09, 0x09, 0xc5,
  0xf8, 0xf9, 0xff, 0xf1, 0x0f, 0xb8, 0x04, 0xc7, 0xf3, 0xff, 0xb3, 0xea,
  0xf1, 0x0f, 0xf9, 0xf4, 0xdf, 0xf3, 0x19, 0x04, 0x05, 0x09, 0xc5, 0xe8,
  0xf1, 0x19, 0xe8, 0xfd, 0xae, 0xfb, 0xec, 0x09, 0xbc, 0x17, 0xeb, 0x1a,
  0x1a, 0xd2, 0xff, 0xf6, 0xda, 0x0b, 0xda, 0x08, 0x04, 0xd7, 0x0d, 0xf1,
  0xdb, 0xd9, 0x2b, 0xec, 0x01, 0x46, 0x44, 0xc5, 0xdc, 0x3c, 0x1a, 0xf2,
  0x24, 0xe6, 0xee, 0x37, 0xe9, 0x31, 0x28, 0xf8, 0x13, 0x2d, 0x43, 0x12,
  0xea, 0x05, 0x25, 0x1c, 0xd6, 0x04, 0x11, 0xcb, 0xea, 0xf0, 0xf3, 0xa9,
  0xd8, 0xea, 0x0b, 0xe2, 0xd0, 0xfa, 0x18, 0xd1, 0x35, 0xd3, 0xe6, 0x2f,
  0xf9, 0xfc, 0xf2, 0x19, 0x5d, 0xeb, 0xef, 0xcd, 0x15, 0xd9, 0xf8, 0x02,
  0x24, 0x5a, 0x18, 0xed, 0x1f, 0xe1, 0x14, 0xd5, 0xd7, 0x0f, 0x1a, 0xf2,
  0x25, 0x21, 0x07, 0x13, 0x28, 0x01, 0x1b, 0xf4, 0xfd, 0xfb, 0xcc, 0x01,
  0x08, 0x13, 0x42, 0x08, 0x0d, 0xed, 0xe0, 0xf2, 0x2e, 0x0b, 0x04, 0x1c,
  0x0f, 0x11, 0x0d, 0xcc, 0xc6, 0xf8, 0xfd, 0xf7, 0xe1, 0x10, 0x1b, 0xea,
  0xe4, 0x0b, 0xf9, 0xef, 0xe5, 0xec, 0xfb, 0xf0, 0x0e, 0x24, 0xed, 0xeb,
  0xf2, 0xdd, 0x09, 0xe7, 0x37, 0x2d, 0x16, 0xea, 0x0d, 0x15, 0x01, 0x94,
  0xe4, 0x16, 0xff, 0xfc, 0xdd, 0x22, 0xf1, 0xf9, 0x11, 0x12, 0xe2, 0xed,
  0xe0, 0xee, 0x0d, 0xfc, 0xde, 0x33, 0xd9, 0x03, 0xf6, 0xd5, 0x4d, 0x38,
  0x32, 0xc1, 0x00, 0xd7, 0xfd, 0xff, 0x2d, 0x08, 0xcb, 0xb7, 0x0e, 0xc5,
  0x0b, 0xe7, 0x12, 0xff, 0x24, 0xc3, 0xfa, 0xc7, 0xcf, 0xd1, 0xe2, 0xfa,
  0xfd, 0xf2, 0x11, 0x01, 0x13, 0xd8, 0x06, 0xde, 0x09, 0xea, 0x19, 0x11,
  0xea, 0xc5, 0x73, 0xdf, 0xb5, 0x1e, 0x27, 0xf1, 0xe2, 0x4d, 0xf2, 0xb3,
  0x25, 0xdc, 0xf4, 0xf1, 0x20, 0x3f, 0x21, 0x21, 0xe7, 0x2f, 0x10, 0x44,
  0x15, 0xeb, 0x7f, 0x54, 0xf0, 0x24, 0x0a, 0x01, 0xe8, 0x01, 0x0c, 0xf3,
  0xd5, 0xe8, 0xf3, 0xe3, 0xc8, 0xf9, 0xdb, 0xe6, 0x2a, 0xec, 0xe3, 0xd6,
  0x00, 0x08, 0x0c, 0x28, 0x4d, 0x4c, 0xe2, 0x1f, 0x3b, 0xf9, 0xfc, 0xf0,
  0x33, 0xd7, 0x3b, 0x02, 0xf8, 0xd6, 0xef, 0xf4, 0xec, 0xfd, 0xe3, 0x0f,
  0xe6, 0xfc, 0xe2, 0xc1, 0xf9, 0xdb, 0x1d, 0xfe, 0xda, 0xf2, 0x09, 0x12,
  0xfa, 0x0c, 0x0c, 0xe0, 0xf7, 0xe7, 0xfc, 0x05, 0xfa, 0xec, 0xdd, 0xf0,
  0xf9, 0xfe, 0xf3, 0xfc, 0x03, 0xf0, 0xf6, 0xf5, 0xed, 0xea, 0xd0, 0xdc,
  0xe1, 0xeb, 0xee, 0x07, 0x06, 0xed, 0x0d, 0xf2, 0xd8, 0xe7, 0x05, 0xf6,
  0xbe, 0xf1, 0xff, 0xde, 0x0d, 0xde, 0x00, 0xeb, 0xfc, 0xeb, 0x04, 0xc8,
  0xfb, 0xdd, 0x1a, 0x21, 0xde, 0x56, 0x16, 0xe9, 0x08, 0xff, 0xd2, 0x0d,
  0xe3, 0xc1, 0xf1, 0x06, 0xbc, 0x34, 0xcd, 0x20, 0xef, 0xd8, 0xf7, 0xfc,
  0xfb, 0xf3, 0xf0, 0x23, 0xe7, 0xcf, 0x09, 0xf7, 0xdc, 0xb4, 0xfe, 0xcc,
  0xcf, 0xf5, 0x08, 0xf3, 0xc0, 0xa2, 0xe4, 0x28, 0xff, 0xe1, 0xe2, 0xeb,
  0x01, 0xe4, 0xfd, 0xbf, 0x10, 0x13, 0xfd, 0xfb, 0xfe, 0x08, 0xff, 0xe8,
  0xf3, 0xe7, 0xe9, 0xba, 0xe6, 0x0a, 0x13, 0x0b, 0xf9, 0xe7, 0xc4, 0xe4,
  0xdc, 0x08, 0xec, 0xe4, 0x07, 0x1a, 0xf3, 0xf4, 0x03, 0xe1, 0x2f, 0x17,
  0x33, 0x14, 0xe7, 0x27, 0xf5, 0xfd, 0xf4, 0xff, 0x0a, 0x10, 0xdf, 0xcd,
  0xd4, 0xf5, 0x0a, 0x07, 0xec, 0x20, 0xc6, 0xe3, 0xf5, 0x02, 0xd7, 0xf1,
  0x08, 0xc9, 0x19, 0xfc, 0xce, 0xef, 0x20, 0x23, 0xfb, 0xe0, 0xd8, 0x18,
  0x05, 0xf5, 0xf6, 0x0a, 0x0f, 0xfe, 0xc8, 0x07, 0x0d, 0x56, 0x0b, 0xfd,
  0x0a, 0xb1, 0xe6, 0xd0, 0xc7, 0xea, 0x03, 0xc7, 0xfd, 0x0b, 0xf2, 0x01,
  0x16, 0x99, 0xfc, 0x14, 0x06, 0x0c, 0x9f, 0x1a, 0x18, 0xfd, 0xe4, 0xfc,
  0xf3, 0xf8, 0x06, 0x00, 0x1f, 0x04, 0xe1, 0x08, 0x0c, 0xf5, 0xc2, 0xfc,
  0xaa, 0x10, 0xf3, 0x09, 0xe0, 0x26, 0xfc, 0xd6, 0x2a, 0xc8, 0x09, 0x15,
  0xce, 0x13, 0x23, 0x14, 0x22, 0xc7, 0xba, 0x08, 0x11, 0xe3, 0x23, 0xdf,
  0x11, 0xf1, 0xf1, 0x10, 0x02, 0xce, 0xfb, 0xec, 0x21, 0xf3, 0xf1, 0xcc,
  0x12, 0x17, 0xdc, 0x07, 0x17, 0xba, 0xf2, 0xbc, 0x0e, 0x15, 0xb0, 0x0c,
  0xec, 0xf8, 0xf2, 0xe4, 0xd3, 0xf6, 0x36, 0xf8, 0xfa, 0x26, 0xba, 0x0c,
  0xf1, 0x28, 0xf1, 0xdb, 0xa0, 0x15, 0xdd, 0xf9, 0xf2, 0x07, 0x04, 0x2a,
  0x1b, 0xdf, 0x3f, 0xf2, 0x0b, 0xf5, 0x0c, 0x0e, 0x06, 0xdb, 0xea, 0xf9,
  0x16, 0xce, 0x15, 0x0e, 0xe0, 0x3a, 0x2f, 0x13, 0x09, 0x6a, 0x23, 0xe8,
  0x0c, 0xde, 0xca, 0x1e, 0x01, 0x16, 0x1a, 0xe9, 0xed, 0x63, 0x58, 0xfe,
  0x06, 0xfb, 0x4f, 0x0e, 0xe2, 0xfe, 0xfc, 0xcb, 0x13, 0xeb, 0x0a, 0xab,
  0x13, 0x02, 0x32, 0xcf, 0xb9, 0x2c, 0x2e, 0xb5, 0x6a, 0x04, 0xbf, 0xd4,
  0x24, 0xcb, 0xf4, 0x08, 0x19, 0x3e, 0xd7, 0xfc, 0xf4, 0xe3, 0xe2, 0xf1,
  0x3a, 0x47, 0x38, 0xce, 0x05, 0xe9, 0x12, 0xbe, 0xf9, 0xdc, 0xde, 0xf8,
  0xd7, 0x56, 0xb6, 0x14, 0xf0, 0xfd, 0x22, 0xd1, 0xfc, 0xf4, 0x05, 0x1c,
  0x02, 0x35, 0x0b, 0x2b, 0x1a, 0xcb, 0x28, 0x31, 0x0a, 0xd4, 0x0c, 0xea,
  0xf9, 0xb8, 0x18, 0xf7, 0xb2, 0xad, 0x2a, 0xd4, 0x07, 0xf5, 0x13, 0x04,
  0x1a, 0xf9, 0x08, 0xd7, 0xd7, 0xca, 0xea, 0x24, 0xfb, 0xe5, 0x0b, 0x06,
  0xf9, 0x02, 0x06, 0xc0, 0xf7, 0xf6, 0xd5, 0xf7, 0xe1, 0x03, 0x33, 0xa7,
  0xe7, 0x2b, 0x33, 0x09, 0x11, 0x71, 0xe1, 0x2c, 0x16, 0xd8, 0xd6, 0xed,
  0xff, 0xe4, 0x10, 0x2b, 0x0a, 0x3f, 0xf9, 0xf2, 0x0a, 0xc9, 0x1a, 0x1e,
  0x27, 0xae, 0x0d, 0xe5, 0xec, 0xb2, 0x24, 0xfe, 0xc7, 0xc4, 0x1e, 0x9e,
  0x2b, 0x0d, 0xeb, 0x01, 0x2c, 0xeb, 0xf3, 0x1f, 0xfa, 0xc3, 0xea, 0x11,
  0x06, 0x29, 0xf2, 0x18, 0x0c, 0xe9, 0x27, 0xb7, 0xeb, 0x39, 0x1c, 0x10,
  0xcf, 0xf0, 0xea, 0xf0, 0x05, 0xf5, 0x06, 0x07, 0x27, 0xc7, 0x2a, 0x00,
  0xf8, 0xf6, 0x22, 0xed, 0xee, 0xf5, 0xe8, 0xc9, 0x15, 0xa9, 0xf3, 0x00,
  0x0e, 0x02, 0xd9, 0x10, 0xf1, 0x15, 0xd4, 0xee, 0xce, 0x18, 0xed, 0x08,
  0xf7, 0x18, 0xe3, 0xfd, 0xf3, 0x17, 0xe6, 0x02, 0xb2, 0xf1, 0xc3, 0x12,
  0xee, 0x10, 0xdf, 0x00, 0x37, 0xf5, 0xff, 0x03, 0xc2, 0x04, 0xf2, 0xec,
  0xf8, 0xfc, 0xd8, 0x08, 0xed, 0xe2, 0x36, 0x10, 0xe0, 0x2d, 0x04, 0x01,
  0xf7, 0x22, 0x17, 0xf1, 0x29, 0xc3, 0x0a, 0xea, 0xf9, 0xe8, 0x07, 0xf5,
  0x06, 0x19, 0x13, 0x1a, 0x09, 0x05, 0x08, 0x28, 0xeb, 0xbe, 0x22, 0xe4,
  0x06, 0x00, 0x12, 0xe1, 0xda, 0x04, 0x2a, 0xd0, 0xf1, 0x23, 0xf6, 0xd2,
  0xb9, 0xf5, 0x11, 0x1a, 0x09, 0x04, 0x02, 0x2a, 0x51, 0x58, 0x0c, 0x09,
  0x06, 0xde, 0xec, 0xfc, 0xe8, 0xeb, 0x31, 0x04, 0x2f, 0xbb, 0x41, 0xd6,
  0xf9, 0x24, 0x0e, 0x11, 0xd4, 0x6c, 0x3b, 0xe4, 0x27, 0xb5, 0x13, 0x1b,
  0x11, 0x0e, 0xe0, 0x2d, 0x14, 0x15, 0x41, 0x0b, 0xfd, 0xdd, 0x36, 0x5b,
  0x42, 0xdb, 0xf4, 0xb2, 0xd6, 0xe3, 0x34, 0xb7, 0xe2, 0xde, 0x0a, 0xd2,
  0xf9, 0xff, 0x37, 0xdb, 0x62, 0xbb, 0x00, 0xe8, 0xfc, 0xea, 0xfa, 0x0a,
  0x20, 0x37, 0xbc, 0xe9, 0x5c, 0xa0, 0x28, 0xf3, 0x10, 0xfa, 0x37, 0x2d,
  0x03, 0xaa, 0x42, 0xd3, 0xf9, 0x1a, 0x3b, 0xfe, 0xc5, 0x45, 0x15, 0xd0,
  0x0f, 0x99, 0xdc, 0x58, 0x05, 0x36, 0xf7, 0x3d, 0xe8, 0x06, 0x4d, 0x0c,
  0x07, 0xd6, 0x2e, 0x35, 0x23, 0xea, 0xe9, 0xc5, 0xcf, 0xdd, 0x14, 0xbb,
  0x01, 0xff, 0x18, 0xbf, 0xc8, 0xe1, 0x1d, 0xa8, 0x64, 0xfe, 0xcf, 0xdd,
  0x2a, 0xd0, 0x16, 0x30, 0x1f, 0x4d, 0xc5, 0xd4, 0xe0, 0xd1, 0xe8, 0xf5,
  0xfc, 0x0b, 0x20, 0xd7, 0xfb, 0x04, 0x0b, 0xed, 0xf2, 0x11, 0xdf, 0x04,
  0x0a, 0x51, 0xe9, 0x0b, 0x35, 0xf0, 0x0c, 0xf3, 0xf8, 0x24, 0x33, 0x17,
  0xd4, 0x00, 0x1c, 0x01, 0xe1, 0xd9, 0x25, 0xf4, 0x0c, 0xe5, 0x12, 0x15,
  0x03, 0xe3, 0x03, 0x01, 0xc5, 0xe2, 0xfb, 0xea, 0x0c, 0xee, 0x21, 0x05,
  0x39, 0xeb, 0xff, 0xfa, 0xe6, 0xd2, 0xdc, 0x1a, 0x1d, 0x1f, 0xe8, 0x2a,
  0x25, 0xea, 0xec, 0xfb, 0xf4, 0x2d, 0xdd, 0x24, 0x2c, 0xe4, 0x1f, 0xbe,
  0xf0, 0xf2, 0xeb, 0x0b, 0x02, 0x0b, 0x0e, 0x0c, 0xb4, 0xf9, 0xc2, 0xfa,
  0xae, 0x24, 0x0b, 0x49, 0x04, 0x28, 0x13, 0x16, 0xba, 0xc1, 0x2e, 0x0a,
  0x0f, 0xe0, 0x01, 0x11, 0x03, 0xec, 0x14, 0x18, 0xbe, 0xaa, 0x0f, 0xca,
  0xef, 0x1a, 0x06, 0xee, 0xf7, 0xd5, 0x19, 0xe0, 0xdb, 0xb3, 0xea, 0x13,
  0x2d, 0x0c, 0xfd, 0x1c, 0x2c, 0xd3, 0x2b, 0xbe, 0xf7, 0x3a, 0xd5, 0x2b,
  0x17, 0x06, 0x1f, 0x09, 0xc1, 0x0e, 0xf9, 0xf9, 0xfd, 0x5f, 0x17, 0x0d,
  0x09, 0x0b, 0x02, 0xf0, 0x02, 0x40, 0x0a, 0x2a, 0xeb, 0x02, 0xe8, 0x07,
  0x0c, 0xd6, 0xeb, 0xf1, 0x22, 0xdd, 0xff, 0xf1, 0x09, 0x12, 0x2e, 0xd5,
  0xfe, 0xdb, 0x1c, 0xe6, 0xe3, 0x2e, 0x39, 0xf9, 0x29, 0xb9, 0x03, 0xef,
  0xde, 0xc6, 0xf0, 0xf5, 0x07, 0xf7, 0xd1, 0x0d, 0x03, 0xb7, 0x67, 0xd3,
  0xf3, 0x5a, 0x28, 0x16, 0x3c, 0xce, 0x12, 0xbf, 0xf8, 0x1c, 0xe1, 0x00,
  0xe9, 0x49, 0x22, 0x10, 0x2d, 0xd0, 0x01, 0x25, 0xe4, 0xec, 0x01, 0x42,
  0xcc, 0x45, 0x0a, 0x0a, 0xfc, 0xc9, 0x59, 0x12, 0x12, 0xe7, 0xeb, 0xe0,
  0x04, 0xe9, 0x0b, 0xef, 0xee, 0x05, 0x23, 0xd3, 0x1e, 0x03, 0xfe, 0x0f,
  0x0d, 0xe8, 0x04, 0xd2, 0xee, 0xf1, 0xca, 0x10, 0x21, 0x0f, 0x07, 0xe5,
  0x28, 0xeb, 0x01, 0xf7, 0x18, 0x24, 0xf1, 0x0d, 0xf1, 0x05, 0x2a, 0x17,
  0xd6, 0x2c, 0x12, 0xeb, 0x13, 0x98, 0xfc, 0xe8, 0x01, 0xfb, 0x17, 0xf4,
  0xfd, 0x1a, 0x0c, 0xf7, 0x07, 0xae, 0x07, 0xfb, 0xe3, 0x1c, 0x98, 0xff,
  0x29, 0x08, 0x1b, 0x0f, 0xe5, 0x16, 0x15, 0xef, 0x06, 0xff, 0xf6, 0xfe,
  0x09, 0x38, 0xb7, 0xf5, 0xa1, 0x0b, 0xf3, 0x10, 0xfe, 0x05, 0xea, 0x15,
  0x12, 0xc4, 0x1c, 0xf9, 0xef, 0x10, 0x08, 0x0b, 0x02, 0xcd, 0xea, 0x04,
  0xf5, 0xf2, 0x0a, 0xe2, 0xcb, 0x1e, 0xea, 0x1f, 0x17, 0xfc, 0xf3, 0xf4,
  0x31, 0xdb, 0xf0, 0x0b, 0x06, 0xcd, 0xf2, 0x08, 0xfc, 0xcc, 0x2b, 0xe0,
  0x15, 0xec, 0xde, 0x1a, 0xf5, 0xdb, 0xff, 0xee, 0xde, 0x0a, 0xf5, 0xde,
  0xe2, 0xec, 0xcb, 0xe6, 0xd4, 0xfe, 0xdd, 0xc3, 0xb6, 0xf6, 0xd1, 0xed,
  0x13, 0xf5, 0xd6, 0xee, 0xc7, 0xe0, 0x0f, 0xe9, 0xea, 0x05, 0xff, 0xe7,
  0xfc, 0x10, 0xef, 0x0f, 0xd7, 0x05, 0xd9, 0x21, 0x11, 0x0f, 0xf7, 0x2a,
  0x1c, 0xda, 0xfe, 0xd3, 0xf7, 0x04, 0xf7, 0xff, 0x1c, 0xf8, 0xf2, 0x05,
  0x28, 0xa5, 0xe5, 0xbc, 0x05, 0x33, 0xb6, 0x16, 0x13, 0xd5, 0xeb, 0x20,
  0xef, 0x24, 0xf3, 0xf9, 0x0d, 0xf0, 0xd9, 0xde, 0x18, 0x22, 0xf8, 0xda,
  0xad, 0x16, 0xda, 0xe1, 0xe1, 0x21, 0x10, 0x13, 0x0b, 0xeb, 0xfa, 0x01,
  0xe6, 0xf0, 0x1c, 0x15, 0x03, 0xe3, 0x29, 0x14, 0xed, 0xd5, 0xf4, 0xcc,
  0xfc, 0xc3, 0xf9, 0xd4, 0xfd, 0x08, 0xf6, 0xf6, 0xe8, 0xdd, 0xf6, 0xeb,
  0x01, 0x0d, 0x14, 0xef, 0xf6, 0xf9, 0xe6, 0xe9, 0xe6, 0x02, 0xfc, 0xfe,
  0x01, 0xf0, 0xf4, 0xea, 0x05, 0xde, 0xfc, 0xee, 0xe3, 0xf9, 0xdd, 0xe9,
  0xf6, 0xec, 0xce, 0xed, 0x1d, 0xff, 0xee, 0xf0, 0xf4, 0x13, 0xec, 0x16,
  0xfd, 0xce, 0xfe, 0xee, 0xfa, 0xca, 0x02, 0xc5, 0xd9, 0xf9, 0xf9, 0x00,
  0x0e, 0xfa, 0xf2, 0x19, 0x0e, 0x3a, 0xed, 0x07, 0x03, 0xc6, 0xf0, 0x05,
  0x16, 0xe9, 0x0c, 0xdd, 0x27, 0xca, 0xe0, 0x14, 0x08, 0xe5, 0xf2, 0x17,
  0xfa, 0xf6, 0xe1, 0xfe, 0x0c, 0xef, 0xf9, 0x0a, 0x0a, 0x03, 0x1e, 0xfb,
  0x26, 0xe2, 0xdc, 0x2e, 0xea, 0x12, 0xc6, 0xef, 0xe3, 0x02, 0x99, 0x00,
  0x0d, 0x16, 0x14, 0xf9, 0x23, 0xbc, 0x33, 0x0b, 0xed, 0xf6, 0xca, 0x18,
  0xde, 0xdd, 0x1e, 0x02, 0x05, 0xfd, 0x24, 0xee, 0xe7, 0x1c, 0x4c, 0xef,
  0x05, 0x48, 0x26, 0xf7, 0x38, 0xd1, 0xce, 0x33, 0x0b, 0xd8, 0x00, 0xf8,
  0x05, 0x4f, 0x21, 0xfa, 0xfd, 0xd4, 0x1f, 0x44, 0x00, 0xed, 0x44, 0xdd,
  0x07, 0xe9, 0xe8, 0xee, 0xf9, 0xee, 0x04, 0xc9, 0xf1, 0xf2, 0x3d, 0xd8,
  0x1a, 0xdc, 0xf9, 0x31, 0x4c, 0xec, 0x16, 0xcc, 0x1e, 0xfe, 0x0e, 0x24,
  0x37, 0xa8, 0x11, 0x03, 0xe5, 0x23, 0x64, 0xf4, 0x20, 0x9d, 0x47, 0x05,
  0x0e, 0x48, 0x26, 0xe2, 0x14, 0x37, 0x10, 0xff, 0x19, 0xc3, 0xd9, 0x4c,
  0x0a, 0x37, 0x08, 0x11, 0xeb, 0x29, 0x3d, 0x0b, 0x25, 0x03, 0x3f, 0xfb,
  0xe9, 0x0f, 0xf6, 0xdd, 0xd4, 0xec, 0xc5, 0xb2, 0xea, 0xf3, 0x11, 0xda,
  0xa5, 0x06, 0xf5, 0xc2, 0x59, 0xd6, 0xf1, 0xed, 0x34, 0xeb, 0x17, 0x3b,
  0x12, 0x3d, 0xcc, 0xf9, 0xe1, 0xd5, 0xf5, 0x03, 0x46, 0x19, 0x48, 0xc1,
  0x30, 0xe9, 0x2b, 0x01, 0xd4, 0x30, 0x3d, 0xe5, 0x00, 0x1c, 0x20, 0xe5,
  0x17, 0xe3, 0xed, 0x14, 0x0f, 0x23, 0x2f, 0x1c, 0xf5, 0x3b, 0x65, 0x27,
  0x0f, 0xf7, 0xe8, 0x1a, 0x1d, 0xe5, 0xfb, 0x03, 0xd9, 0x07, 0x08, 0xe1,
  0xf8, 0x01, 0xfe, 0xe8, 0xf7, 0x0c, 0x08, 0xda, 0x00, 0xe8, 0xe1, 0xec,
  0x11, 0xe7, 0x13, 0x10, 0x16, 0x00, 0xd2, 0x00, 0x00, 0xcd, 0x0a, 0xf9,
  0x29, 0x10, 0x2b, 0x10, 0xd0, 0xc9, 0x15, 0xf7, 0x17, 0x09, 0x17, 0x07,
  0xf5, 0x45, 0xf1, 0x18, 0x10, 0xea, 0x0d, 0xf3, 0x08, 0xe4, 0x01, 0xfc,
  0xf4, 0x58, 0x6f, 0xf5, 0x06, 0xf7, 0x1f, 0xee, 0xf1, 0xda, 0x26, 0xf6,
  0xf0, 0xeb, 0x12, 0xc3, 0x17, 0xf2, 0x06, 0xe9, 0xe5, 0x1c, 0x14, 0xda,
  0xfc, 0xcd, 0xf9, 0xe1, 0x32, 0xe8, 0xe3, 0x0d, 0xc5, 0x38, 0xf0, 0xe7,
  0x13, 0xe4, 0x05, 0xf6, 0x58, 0x3a, 0xee, 0x00, 0xe7, 0xec, 0xf4, 0x21,
  0x12, 0xe2, 0xe3, 0x1d, 0xff, 0xd0, 0x10, 0x17, 0x1e, 0x15, 0xff, 0xce,
  0x08, 0x19, 0xd3, 0x17, 0x0b, 0xe4, 0xf0, 0x00, 0x44, 0x28, 0xc9, 0xf1,
  0xe7, 0x29, 0xe7, 0x14, 0xa8, 0x30, 0x25, 0xdd, 0x0b, 0xd0, 0x03, 0x0c,
  0xef, 0x2d, 0xce, 0xc4, 0xa8, 0x07, 0x00, 0xdb, 0xf4, 0xef, 0x04, 0xef,
  0xe2, 0xd5, 0xde, 0xef, 0xd9, 0xe5, 0xfd, 0xf2, 0x0a, 0xd2, 0xed, 0x27,
  0x8a, 0xc3, 0xff, 0xff, 0x04, 0x00, 0x00, 0x00, 0x00, 0x20, 0x00, 0x00,
  0x22, 0x20, 0xe9, 0xeb, 0xf4, 0xf0, 0x06, 0xd9, 0xec, 0xf0, 0xf9, 0x0f,
  0xf0, 0x07, 0xfd, 0xf9, 0x16, 0xf6, 0xee, 0x40, 0xfe, 0xf3, 0x10, 0x4a,
  0x02, 0x5b, 0x18, 0x28, 0xfb, 0xf2, 0xf7, 0xf3, 0xed, 0x04, 0x15, 0x1c,
  0x06, 0xf8, 0xf4, 0x45, 0x0c, 0xf6, 0xfc, 0x05, 0xfd, 0xec, 0x10, 0xe8,
  0x0c, 0xff, 0xf9, 0x06, 0xf0, 0x3f, 0x11, 0xfd, 0x5c, 0x13, 0xee, 0x17,
  0x05, 0xf7, 0xf7, 0x26, 0x04, 0x15, 0x12, 0xdf, 0x1e, 0x0f, 0xff, 0xe6,
  0x11, 0x09, 0x13, 0x00, 0x2a, 0xf9, 0x2e, 0x02, 0xe5, 0x54, 0x06, 0xf8,
  0xf3, 0xfc, 0x28, 0xe7, 0x07, 0x03, 0x0f, 0xf2, 0x2c, 0xcf, 0xf6, 0xfa,
  0x19, 0x05, 0xd3, 0x38, 0x0e, 0x0f, 0x2a, 0xf4, 0x1b, 0xe9, 0xf9, 0x0a,
  0x00, 0x06, 0xfc, 0x00, 0xfa, 0xfd, 0x0e, 0x28, 0x0f, 0xfa, 0x1f, 0x12,
  0x0b, 0x11, 0x64, 0xcd, 0xd0, 0x03, 0xfc, 0x2f, 0xf3, 0xf7, 0xfa, 0xf2,
  0x06, 0xff, 0x17, 0x28, 0x08, 0x13, 0xd8, 0x0a, 0xf3, 0xc1, 0x18, 0x0c,
  0xf0, 0x19, 0x0d, 0xce, 0x1f, 0x0d, 0x00, 0xe9, 0x1b, 0xc7, 0xff, 0xbd,
  0x16, 0x09, 0x19, 0x18, 0xfe, 0x0a, 0x00, 0x1d, 0xe9, 0x24, 0x13, 0x0a,
  0x22, 0x06, 0x0d, 0x0a, 0x08, 0x0b, 0x06, 0x22, 0x04, 0xfb, 0xfa, 0xda,
  0xff, 0xff, 0x04, 0xfd, 0xcd, 0xe8, 0xec, 0xf8, 0xce, 0xfa, 0xfc, 0x02,
  0xf3, 0xe6, 0xd1, 0x1f, 0x21, 0xbf, 0x1b, 0xf9, 0xfa, 0xe3, 0x16, 0x18,
  0x15, 0xea, 0x11, 0x1f, 0x0f, 0xb4, 0xed, 0xfd, 0x17, 0x05, 0xf2, 0x35,
  0x1b, 0x0d, 0x16, 0xfc, 0xe4, 0x24, 0x0d, 0x06, 0xe3, 0x00, 0xf7, 0x12,
  0xf5, 0xfb, 0x09, 0x0f, 0xf2, 0x13, 0xff, 0xfb, 0x1d, 0x06, 0xea, 0xf2,
  0x11, 0x19, 0x01, 0x02, 0x27, 0x05, 0x05, 0xfb, 0xce, 0xe7, 0xf8, 0x08,
  0x10, 0x15, 0x1b, 0xb6, 0x52, 0x30, 0x05, 0xf5, 0xf5, 0x21, 0x20, 0xec,
  0xee, 0x15, 0x27, 0x09, 0xed, 0x1c, 0xef, 0xf5, 0x25, 0xfc, 0x03, 0x48,
  0xf5, 0xf6, 0x0c, 0x28, 0x1c, 0x3d, 0x23, 0x36, 0x18, 0x12, 0x0a, 0xe0,
  0xfc, 0x25, 0x0e, 0x10, 0x0d, 0x04, 0x0c, 0x0d, 0xde, 0xf1, 0xd9, 0xe1,
  0xd3, 0xc6, 0x43, 0xf5, 0x16, 0xf4, 0xd8, 0x18, 0x0c, 0x39, 0x31, 0x00,
  0x46, 0x0f, 0xfe, 0x05, 0x35, 0xe0, 0x11, 0x26, 0x2d, 0x09, 0x23, 0x06,
  0x23, 0x2d, 0xfd, 0xe4, 0x01, 0x23, 0x0e, 0x33, 0x1d, 0x1c, 0x35, 0xfe,
  0xed, 0x47, 0x01, 0x12, 0xde, 0xfb, 0x29, 0xe0, 0xf5, 0xdb, 0xf4, 0x10,
  0x1c, 0xfc, 0xef, 0x1a, 0x25, 0x12, 0xfc, 0x14, 0x31, 0x0e, 0x11, 0xed,
  0xfc, 0xf5, 0xe3, 0xf5, 0xe9, 0xf6, 0xed, 0xf9, 0x13, 0x0e, 0x01, 0x0d,
  0xe5, 0x12, 0x02, 0xf8, 0x1e, 0x32, 0x42, 0xf2, 0x10, 0xf3, 0xee, 0x4d,
  0x22, 0xf5, 0xee, 0x14, 0xc3, 0xc9, 0x16, 0x10, 0xfb, 0x1c, 0x99, 0xec,
  0xfb, 0xc1, 0x00, 0x00, 0xdd, 0x17, 0xe7, 0xc9, 0x07, 0xf2, 0xe5, 0xea,
  0xec, 0xd9, 0xd7, 0x9c, 0x0b, 0x1b, 0x0d, 0xfc, 0x02, 0x09, 0xb7, 0x21,
  0xd2, 0xf8, 0x19, 0x26, 0x0b, 0x12, 0x1a, 0xf9, 0x0f, 0x11, 0xec, 0x05,
  0xda, 0x03, 0x08, 0xdb, 0xea, 0xe6, 0xd7, 0xf5, 0xf3, 0xbf, 0xfb, 0x16,
  0x81, 0x0c, 0xe3, 0xe3, 0x0d, 0xd7, 0xe7, 0x0d, 0xfd, 0xbe, 0x0d, 0xdf,
  0xf7, 0x00, 0x06, 0xfe, 0x17, 0xf3, 0xdc, 0xcd, 0xfe, 0xd8, 0xc7, 0x15,
  0x05, 0x1f, 0xce, 0x18, 0x0a, 0xf8, 0x17, 0xf2, 0xec, 0xf2, 0x10, 0x15,
  0xf2, 0xfb, 0xf5, 0x04, 0xe3, 0xc1, 0xfc, 0xf6, 0x24, 0x16, 0xe0, 0xd4,
  0x18, 0x0a, 0x13, 0xd1, 0xf1, 0x05, 0xcd, 0x15, 0x0b, 0x0c, 0x02, 0xd2,
  0xba, 0x15, 0xc5, 0xfd, 0x13, 0x0d, 0x0a, 0xcb, 0xeb, 0xf3, 0xf6, 0x07,
  0x07, 0xde, 0x0c, 0x16, 0xf1, 0xf4, 0xc2, 0xf0, 0x2e, 0xd9, 0xf6, 0x02,
  0xee, 0x0a, 0xd7, 0xb8, 0x03, 0xfe, 0xeb, 0xf0, 0xd8, 0xae, 0xff, 0xae,
  0xf8, 0x23, 0x13, 0xed, 0xfc, 0x05, 0xf2, 0xef, 0xe1, 0xfd, 0x05, 0xf9,
  0x17, 0xf4, 0x0a, 0x0f, 0x10, 0xf0, 0xff, 0xf5, 0xc9, 0x19, 0xef, 0xe7,
  0x00, 0xcb, 0xf7, 0x03, 0xec, 0xf8, 0xdb, 0x01, 0xc8, 0x02, 0x07, 0xda,
  0xee, 0xbf, 0xe4, 0x24, 0x0a, 0xd7, 0xfb, 0xdb, 0x0f, 0xd8, 0xf0, 0x20,
  0xf6, 0x04, 0xe9, 0xf6, 0x14, 0xc4, 0xb4, 0x0d, 0x16, 0x0a, 0xe8, 0x10,
  0xf7, 0x05, 0x25, 0xef, 0xe0, 0x0f, 0x07, 0x0e, 0xe6, 0xfe, 0x06, 0xee,
  0xee, 0xd8, 0xd8, 0x0e, 0x02, 0x14, 0xf0, 0xe1, 0x02, 0x23, 0xf0, 0xe8,
  0xf5, 0xf3, 0x0c, 0xdf, 0x07, 0xf2, 0x07, 0x05, 0xc3, 0xe0, 0xc1, 0x0a,
  0xf5, 0xe2, 0x1d, 0xf4, 0x0e, 0x17, 0x12, 0xf8, 0x1e, 0x0f, 0x32, 0xe2,
  0xda, 0x1a, 0x0b, 0x05, 0xe2, 0xf6, 0xef, 0xf3, 0x1a, 0x07, 0x00, 0x08,
  0xd6, 0xdb, 0x04, 0x18, 0x16, 0x08, 0x10, 0x0e, 0xe2, 0x0b, 0xf6, 0xd6,
  0x0d, 0x19, 0xf7, 0x0a, 0x0d, 0xf9, 0xf0, 0xea, 0xfa, 0xf1, 0xdf, 0x0d,
  0xaf, 0xdd, 0x06, 0xf2, 0x18, 0xe6, 0xeb, 0x0b, 0x0a, 0x00, 0x0e, 0xf3,
  0x10, 0x12, 0x16, 0x02, 0x12, 0xfa, 0x00, 0x17, 0xf6, 0x07, 0xec, 0x05,
  0x01, 0x1f, 0xec, 0xf5, 0xfe, 0x0a, 0xfb, 0x28, 0x21, 0xf2, 0x18, 0x04,
  0x13, 0x14, 0x0c, 0x30, 0xf5, 0xf3, 0x22, 0xea, 0xdd, 0xf7, 0x07, 0x0a,
  0x0a, 0xea, 0x00, 0x18, 0x1e, 0x02, 0xfa, 0x03, 0x01, 0xf6, 0x12, 0xd4,
  0xf2, 0x0a, 0x06, 0xf7, 0xe9, 0x01, 0xeb, 0x04, 0xee, 0x01, 0xee, 0x27,
  0xeb, 0xe9, 0xfd, 0x0f, 0x09, 0x28, 0xf9, 0x07, 0x2a, 0xee, 0xea, 0x16,
  0xf9, 0x08, 0x11, 0xd3, 0x18, 0x0c, 0x12, 0x05, 0x05, 0x08, 0xfc, 0x17,
  0xf0, 0x12, 0x20, 0x04, 0x0e, 0x00, 0x0a, 0xfb, 0xf6, 0xe3, 0x13, 0x1a,
  0xfd, 0x1e, 0x06, 0x24, 0xf5, 0x01, 0xf8, 0xee, 0xfa, 0xfb, 0xe6, 0x05,
  0x11, 0x1b, 0xfd, 0x1e, 0xde, 0xed, 0xe7, 0xe7, 0xf4, 0xeb, 0x29, 0xf6,
  0x05, 0xce, 0xdd, 0x24, 0x16, 0x13, 0x2c, 0xf9, 0x24, 0xf1, 0x08, 0x09,
  0x09, 0xdf, 0x26, 0x00, 0x02, 0x07, 0xfb, 0xf3, 0x01, 0x3c, 0x02, 0xfa,
  0xfb, 0xf8, 0xf8, 0x1a, 0x13, 0x1a, 0x29, 0xfc, 0xe0, 0x1d, 0x18, 0x04,
  0xfc, 0x01, 0x04, 0xe7, 0xce, 0xeb, 0x11, 0x1c, 0x12, 0x11, 0x01, 0x03,
  0x1f, 0x23, 0x0a, 0x15, 0x1a, 0x1b, 0x04, 0xfb, 0x0b, 0xe9, 0x0e, 0xf1,
  0xf2, 0x11, 0xe9, 0xfe, 0xf3, 0x10, 0x00, 0x3a, 0xfe, 0x08, 0x18, 0xf6,
  0x22, 0x17, 0x0a, 0x04, 0xf6, 0x01, 0xe6, 0x22, 0x10, 0xd9, 0x00, 0x02,
  0xf6, 0xec, 0x12, 0x05, 0x00, 0xf7, 0xc9, 0xfb, 0x13, 0xd3, 0xfa, 0x10,
  0xf5, 0x0c, 0x03, 0xf5, 0x0d, 0x09, 0xff, 0xf8, 0x00, 0xe2, 0xee, 0xe0,
  0xf2, 0x08, 0xf6, 0x08, 0x17, 0xfb, 0xfe, 0x09, 0xdc, 0x04, 0xfd, 0x1d,
  0xe5, 0xed, 0x19, 0x1d, 0x0f, 0x12, 0x06, 0x03, 0xf8, 0x06, 0xf7, 0x00,
  0xd9, 0xcd, 0xe7, 0xe9, 0x01, 0xc5, 0xec, 0x00, 0xd5, 0xf4, 0xe2, 0xee,
  0x02, 0xdf, 0x00, 0x02, 0xf3, 0xce, 0x07, 0xeb, 0x06, 0xf4, 0x1b, 0xe8,
  0x04, 0xec, 0xe7, 0xec, 0x00, 0xfe, 0xcd, 0xf3, 0xfe, 0x0e, 0xf3, 0x0c,
  0x0b, 0x1a, 0x05, 0xd8, 0xe9, 0xf6, 0x19, 0x07, 0xec, 0xeb, 0xdc, 0x03,
  0x14, 0xe9, 0xfb, 0x06, 0x07, 0x21, 0xf5, 0xd9, 0x1d, 0x08, 0x13, 0xdc,
  0x05, 0xfa, 0xfc, 0xf5, 0xfe, 0x09, 0xfd, 0x08, 0x1d, 0x20, 0xf4, 0x15,
  0xe4, 0xf4, 0x04, 0xf4, 0xe0, 0x02, 0xeb, 0xf2, 0xe4, 0xe5, 0x0c, 0x24,
  0xfe, 0x25, 0xc6, 0x04, 0x2a, 0xec, 0xee, 0x03, 0xe1, 0x0b, 0x08, 0xfa,
  0x06, 0xfc, 0xfc, 0x15, 0xf2, 0xe5, 0xf4, 0xe0, 0xf5, 0xf7, 0x15, 0xfe,
  0x0a, 0xe6, 0xe0, 0x09, 0xe3, 0xfb, 0x22, 0xf4, 0xee, 0x21, 0xfd, 0x10,
  0xfe, 0x0e, 0x02, 0x14, 0xeb, 0xf3, 0x14, 0x02, 0xe7, 0xe2, 0xe2, 0xf2,
  0xee, 0xf8, 0x02, 0xf5, 0xeb, 0xf5, 0xfe, 0xdd, 0x15, 0xdd, 0x04, 0x16,
  0xfe, 0xe3, 0x0f, 0xeb, 0x17, 0xfb, 0x1e, 0x03, 0x05, 0xbd, 0xe3, 0xed,
  0x1f, 0xce, 0xc0, 0x04, 0x26, 0x25, 0xe3, 0x15, 0xfc, 0x0b, 0x16, 0xdf,
  0xe9, 0xf7, 0x03, 0x09, 0xed, 0xf3, 0xe3, 0x16, 0xfd, 0xf2, 0xff, 0xf3,
  0x10, 0x13, 0x04, 0xec, 0x0a, 0x0d, 0x06, 0xe5, 0x17, 0xe3, 0x0e, 0x11,
  0x0b, 0x21, 0xee, 0xfb, 0xda, 0x1b, 0xcb, 0xea, 0x0d, 0x08, 0x0b, 0xdd,
  0x32, 0x3b, 0x14, 0xd3, 0x22, 0x11, 0x0a, 0xf6, 0xda, 0x08, 0x28, 0x30,
  0xd5, 0x08, 0x01, 0xec, 0x1f, 0x07, 0xf2, 0x39, 0xdd, 0xe1, 0x33, 0x31,
  0x12, 0x35, 0x15, 0x52, 0x07, 0xff, 0xe9, 0xcc, 0xf2, 0x16, 0x01, 0x17,
  0x34, 0x00, 0xd4, 0x27, 0xca, 0xce, 0xc7, 0xef, 0xc1, 0xb4, 0x36, 0x08,
  0x0e, 0xd0, 0xcc, 0x17, 0x0a, 0x18, 0x1e, 0xe7, 0x39, 0x13, 0xeb, 0x06,
  0x3e, 0xcb, 0xff, 0x09, 0x09, 0x0d, 0x03, 0x0d, 0xfd, 0x7a, 0xe6, 0xd9,
  0xee, 0x35, 0x0d, 0x4e, 0x2e, 0x1d, 0x4c, 0xf1, 0xf2, 0x48, 0xff, 0x2c,
  0xe7, 0xd6, 0x0d, 0xe5, 0xe0, 0xd3, 0xe8, 0x1c, 0x13, 0xeb, 0xee, 0x0e,
  0x35, 0x15, 0xe5, 0x13, 0x2e, 0x15, 0x24, 0xed, 0x0a, 0xff, 0x13, 0x04,
  0xf5, 0xf9, 0xda, 0x0b, 0x03, 0xfd, 0x05, 0x26, 0xe8, 0x0b, 0x1e, 0xf7,
  0x4e, 0x3e, 0x1d, 0x07, 0x1d, 0xf2, 0xbb, 0x3c, 0xf6, 0xf5, 0xf1, 0xfc,
  0x10, 0xf0, 0xf2, 0x06, 0xfd, 0x09, 0xcb, 0xfa, 0xf9, 0xdf, 0x07, 0xfa,
  0x01, 0x23, 0xe3, 0xc2, 0x0b, 0x0b, 0xf9, 0x1e, 0x02, 0xe1, 0xf8, 0xb0,
  0xff, 0x07, 0xf6, 0xf3, 0xeb, 0xf9, 0xe3, 0xf7, 0xd9, 0x14, 0x0b, 0x06,
  0x00, 0x10, 0xfe, 0x16, 0xef, 0xf3, 0x13, 0xfe, 0xea, 0xf5, 0x10, 0xec,
  0xf8, 0xf4, 0xde, 0xeb, 0xda, 0xe9, 0xfd, 0x0b, 0xb4, 0x04, 0x03, 0xec,
  0x12, 0xcf, 0xe9, 0x11, 0xf2, 0xd2, 0x07, 0xda, 0x11, 0xfd, 0xec, 0xeb,
  0x23, 0xf4, 0xe0, 0xfb, 0x19, 0xe4, 0xbc, 0xff, 0x09, 0x27, 0xcf, 0xef,
  0x0e, 0x11, 0xf0, 0x06, 0xef, 0x00, 0x0d, 0x09, 0xdd, 0xf2, 0xec, 0x26,
  0xe0, 0xd6, 0x19, 0x02, 0x02, 0x0f, 0xe6, 0xe4, 0xf3, 0x01, 0x0a, 0xe5,
  0xfa, 0x07, 0x14, 0x13, 0x16, 0x1f, 0x1b, 0xe6, 0xf7, 0x15, 0xdf, 0x02,
  0x09, 0xe5, 0x0e, 0xe2, 0x32, 0x22, 0xe7, 0xff, 0x02, 0x0a, 0xff, 0xfa,
  0x02, 0xe4, 0x39, 0x1b, 0xeb, 0x36, 0xf9, 0x02, 0x2c, 0x01, 0x36, 0x2e,
  0xf3, 0xee, 0xfe, 0x18, 0x05, 0x67, 0x22, 0x66, 0xfe, 0xe7, 0x0e, 0x00,
  0x14, 0xf1, 0xf0, 0x19, 0x36, 0xed, 0x0b, 0x18, 0xef, 0xf2, 0xf0, 0xf0,
  0x00, 0xf9, 0x0d, 0x18, 0xe4, 0xfd, 0xfa, 0x10, 0xf8, 0x5b, 0x1b, 0x05,
  0x64, 0xfe, 0x0d, 0xd8, 0x48, 0x0a, 0x29, 0x35, 0x16, 0x11, 0x08, 0xe6,
  0x05, 0x2d, 0x06, 0x02, 0xff, 0x1a, 0x28, 0xef, 0x07, 0x0c, 0x12, 0xfe,
  0xc7, 0x36, 0x01, 0xdf, 0xee, 0xf3, 0x33, 0x00, 0xef, 0x00, 0xcf, 0x0a,
  0x4a, 0xe2, 0xee, 0x07, 0x38, 0x1e, 0xf8, 0xf0, 0x29, 0xef, 0x0a, 0x1f,
  0x02, 0xfc, 0x10, 0x02, 0xe9, 0xbe, 0xf5, 0x19, 0xf1, 0xf4, 0xfd, 0x07,
  0xf1, 0xf9, 0x15, 0x17, 0x16, 0x20, 0x54, 0xf0, 0xdc, 0xfa, 0x0e, 0x1f,
  0x27, 0x16, 0xdb, 0xef, 0xdd, 0x12, 0x01, 0xf3, 0xe9, 0x07, 0x26, 0x03,
  0xe1, 0x4c, 0x12, 0x01, 0x37, 0xfd, 0x0b, 0x46, 0xe7, 0xde, 0x20, 0x14,
  0x05, 0x3b, 0x00, 0x4d, 0x0b, 0xfb, 0x0d, 0xfc, 0xfd, 0x03, 0xee, 0x21,
  0x1b, 0x02, 0xee, 0x03, 0xdb, 0xe2, 0xd8, 0x00, 0xea, 0xe4, 0x1e, 0xf7,
  0xfb, 0xdf, 0xe4, 0x0a, 0xee, 0x1b, 0x15, 0xf9, 0x34, 0x10, 0x13, 0xed,
  0x2b, 0xf1, 0x1e, 0xf5, 0x1b, 0xf9, 0x32, 0xf5, 0x09, 0x45, 0xd5, 0xec,
  0xe5, 0x41, 0x13, 0x0b, 0x23, 0xea, 0x29, 0x09, 0xf8, 0x48, 0xee, 0x2a,
  0xd8, 0xfa, 0x45, 0xec, 0xf9, 0xfd, 0x12, 0x04, 0x1e, 0xe9, 0xe5, 0x04,
  0x1c, 0x1f, 0xe1, 0x27, 0x37, 0x04, 0x1c, 0x0c, 0x07, 0xfa, 0x1c, 0xfc,
  0x07, 0xfd, 0xf5, 0xe2, 0xf4, 0x13, 0x14, 0xee, 0xd6, 0x13, 0x12, 0x01,
  0x47, 0x0d, 0x3c, 0xe7, 0x11, 0xe4, 0xea, 0x4f, 0x0b, 0x1c, 0x06, 0xf1,
  0x03, 0x05, 0x06, 0x09, 0xee, 0xd9, 0x05, 0x06, 0x0d, 0xeb, 0x13, 0x0a,
  0xde, 0x15, 0x27, 0x2b, 0xff, 0x19, 0xec, 0x1d, 0x1b, 0xf4, 0xf6, 0xe8,
  0x07, 0x06, 0x00, 0x17, 0x26, 0x1a, 0x38, 0xe9, 0xe3, 0xfb, 0xff, 0xf2,
  0xf9, 0xf9, 0x03, 0xfa, 0xfa, 0x00, 0x0d, 0x06, 0x08, 0x06, 0xfd, 0x03,
  0x20, 0xfd, 0x08, 0x23, 0xea, 0x12, 0xf6, 0xfc, 0x19, 0xff, 0x00, 0x14,
  0x19, 0x19, 0xd2, 0x05, 0x15, 0xee, 0x24, 0x14, 0x1c, 0x05, 0x19, 0xf6,
  0xd7, 0xff, 0x1e, 0x38, 0x08, 0xe0, 0x25, 0xf6, 0x10, 0x03, 0xe5, 0x03,
  0x0b, 0xf3, 0x06, 0x25, 0x15, 0x10, 0xf7, 0xd8, 0xff, 0x14, 0x19, 0x07,
  0xfb, 0x0e, 0xfe, 0x0c, 0x26, 0xfb, 0x0e, 0x0b, 0x11, 0x2e, 0x03, 0xff,
  0x08, 0x19, 0x2a, 0xf9, 0x05, 0x01, 0x03, 0x31, 0x2a, 0xe1, 0x18, 0xf3,
  0xdd, 0x18, 0x09, 0xef, 0x0e, 0xf5, 0xfe, 0x15, 0xf3, 0xf1, 0x0c, 0x0d,
  0xff, 0xfe, 0xdb, 0xdb, 0xf3, 0xc4, 0x00, 0x08, 0xfc, 0x09, 0xe9, 0xb2,
  0x08, 0xdb, 0x0a, 0xd7, 0x24, 0xdb, 0xed, 0xb9, 0xdc, 0x06, 0xfb, 0xfb,
  0xf1, 0xed, 0xf2, 0x0a, 0xfe, 0x02, 0x07, 0x00, 0x06, 0x0e, 0xfe, 0x13,
  0xf2, 0x10, 0x00, 0x02, 0xfe, 0x12, 0xfd, 0xcd, 0xf3, 0xeb, 0xbd, 0x04,
  0xf1, 0xe0, 0x06, 0x21, 0xc9, 0xf7, 0xcc, 0xfd, 0x04, 0xdb, 0xf3, 0x1b,
  0x09, 0xdc, 0x06, 0xec, 0x0d, 0xfe, 0x0c, 0x02, 0x24, 0xf9, 0x0c, 0x17,
  0xf5, 0xde, 0xf7, 0xe6, 0xda, 0x23, 0xd8, 0xf8, 0xe3, 0xf9, 0x0d, 0xec,
  0x09, 0xf1, 0x10, 0x17, 0xd7, 0x09, 0xfc, 0xe6, 0xfa, 0xc0, 0xe3, 0x09,
  0x0f, 0x10, 0xdd, 0xe6, 0x03, 0x10, 0xfc, 0xef, 0x06, 0x01, 0x20, 0x15,
  0x22, 0x21, 0x16, 0xf6, 0xde, 0x08, 0xff, 0x01, 0x04, 0x0d, 0x06, 0xfa,
  0x0f, 0x13, 0x17, 0xe3, 0x02, 0xfc, 0x13, 0x02, 0xfd, 0xe8, 0x2d, 0x06,
  0xde, 0x31, 0x1b, 0x04, 0x25, 0xf6, 0x01, 0x0b, 0xfb, 0xf5, 0x0f, 0x12,
  0x1b, 0x20, 0x22, 0x39, 0x10, 0xf4, 0x0b, 0xf5, 0x0e, 0x04, 0x05, 0x16,
  0x23, 0xe7, 0x0b, 0x21, 0xea, 0xe4, 0xe8, 0x1a, 0xeb, 0xfb, 0x24, 0xf7,
  0x14, 0xe8, 0xec, 0x12, 0x0a, 0x26, 0x2b, 0xe7, 0x24, 0xfd, 0x07, 0xf4,
  0x24, 0xe6, 0x1a, 0x28, 0x09, 0xf3, 0x3c, 0xed, 0x01, 0x2a, 0x06, 0x1e,
  0x0a, 0x15, 0x0a, 0x01, 0x0d, 0x09, 0x0e, 0x09, 0xf9, 0x20, 0xfe, 0x0d,
  0xef, 0x0a, 0x22, 0xeb, 0xeb, 0xee, 0xf6, 0x0b, 0x17, 0xfc, 0x16, 0xc2,
  0x1a, 0x14, 0x0c, 0xff, 0x16, 0x11, 0x23, 0x06, 0xe9, 0xf5, 0x20, 0x19,
  0x03, 0xf9, 0x10, 0x18, 0x04, 0x1a, 0x10, 0x22, 0xec, 0x08, 0x06, 0x1f,
  0x07, 0x11, 0x0b, 0xf0, 0xe6, 0x15, 0xf1, 0x16, 0x26, 0xf8, 0x03, 0x13,
  0xe9, 0xd6, 0x1f, 0xe7, 0xf6, 0x0b, 0xc2, 0xf5, 0x03, 0xc2, 0xf4, 0xfe,
  0x05, 0x1e, 0xfe, 0xdb, 0x06, 0xf3, 0xe8, 0x07, 0xfd, 0xdc, 0xed, 0xaa,
  0x00, 0x03, 0x2b, 0xfd, 0x06, 0xff, 0xd0, 0x2f, 0xde, 0xfa, 0x27, 0x16,
  0x0f, 0x06, 0x0e, 0x19, 0x06, 0xf5, 0xf5, 0xf6, 0xe6, 0xea, 0x02, 0x17,
  0x09, 0xf4, 0xe1, 0x01, 0xf4, 0xcc, 0xf6, 0x10, 0xa1, 0xeb, 0xe7, 0xf4,
  0xf3, 0xe1, 0xda, 0x10, 0xeb, 0xea, 0x11, 0xef, 0x09, 0x08, 0xe3, 0xf9,
  0x0b, 0x0b, 0xce, 0xe5, 0x0a, 0xfd, 0xba, 0x0b, 0x1c, 0x11, 0xca, 0x26,
  0x09, 0x03, 0x12, 0xf8, 0xdb, 0xe6, 0x13, 0xfb, 0x14, 0xe6, 0xf1, 0x18,
  0xeb, 0xbd, 0xeb, 0x13, 0x1f, 0x11, 0x04, 0xf1, 0x0c, 0xf8, 0x18, 0xc5,
  0x08, 0x10, 0xfb, 0x16, 0xf7, 0x14, 0x09, 0x02, 0x02, 0x00, 0xeb, 0xfb,
  0xfd, 0x08, 0x05, 0xe2, 0x43, 0x15, 0xe9, 0xff, 0x07, 0x1a, 0xe8, 0xf1,
  0x00, 0x1f, 0x22, 0x2f, 0xe8, 0x36, 0xf0, 0xfe, 0x18, 0xe8, 0x05, 0x39,
  0x02, 0xe4, 0x05, 0x49, 0x10, 0x32, 0x1e, 0x4c, 0x04, 0x06, 0x05, 0xf7,
  0x01, 0x18, 0xf1, 0x07, 0x1b, 0xf2, 0xfe, 0x11, 0xea, 0xf0, 0xe5, 0x04,
  0xf2, 0xf6, 0x23, 0x15, 0xfa, 0xe9, 0xdd, 0x16, 0xee, 0x49, 0x1e, 0x0c,
  0x40, 0x14, 0x17, 0xf1, 0x3a, 0xdb, 0x1e, 0x27, 0x28, 0x06, 0x14, 0xe3,
  0x14, 0x3a, 0xd2, 0xde, 0xeb, 0x23, 0x36, 0xf5, 0x28, 0x06, 0x44, 0x08,
  0xf5, 0x24, 0x05, 0x0d, 0xef, 0x0a, 0x42, 0x05, 0xf9, 0x02, 0xdc, 0x0c,
  0x35, 0xe9, 0xff, 0xfe, 0x33, 0x1b, 0xf1, 0x1b, 0x18, 0x07, 0x15, 0xf3,
  0x1a, 0x05, 0x0f, 0xf4, 0xe6, 0xd9, 0xf1, 0xdd, 0x00, 0x00, 0x11, 0x1e,
  0xf5, 0x00, 0x34, 0xf7, 0x18, 0x30, 0x2d, 0xea, 0xfd, 0x06, 0xf3, 0x37,
  0x29, 0x19, 0xeb, 0x0b, 0xfc, 0x01, 0xdf, 0x06, 0xf0, 0xd5, 0x1c, 0x1a,
  0xfa, 0x05, 0x18, 0xf0, 0x15, 0xf6, 0xf6, 0x45, 0xfa, 0x06, 0x00, 0x16,
  0xf4, 0x55, 0x00, 0x26, 0x18, 0xf3, 0x0b, 0xef, 0x08, 0x04, 0xee, 0x2e,
  0x3f, 0x00, 0x09, 0x29, 0x0f, 0x0a, 0xf8, 0x04, 0xfd, 0xfa, 0x16, 0x13,
  0x0f, 0xf6, 0x07, 0x27, 0xfe, 0x6e, 0x20, 0x1a, 0x4e, 0xe0, 0x32, 0xf2,
  0xfa, 0xef, 0x22, 0x26, 0x1d, 0x30, 0x14, 0xf7, 0x19, 0x3d, 0xf8, 0x02,
  0x1b, 0x35, 0x0a, 0xe4, 0x20, 0x21, 0x1b, 0xff, 0xe5, 0x32, 0x04, 0xff,
  0xeb, 0xf9, 0x0a, 0xf0, 0x0b, 0xed, 0xe5, 0xfe, 0x3b, 0xf2, 0xf8, 0xf8,
  0x35, 0x0a, 0xec, 0x0a, 0x1e, 0xf1, 0x2c, 0xfc, 0xea, 0xf2, 0x07, 0xe5,
  0xff, 0xe6, 0x00, 0xda, 0xf0, 0x05, 0x15, 0x21, 0x05, 0xfb, 0x15, 0xf4,
  0x04, 0x1a, 0x50, 0xd6, 0xe0, 0xf2, 0x18, 0x2e, 0x50, 0xff, 0xed, 0x05,
  0xe5, 0xf0, 0xe4, 0xe0, 0xf8, 0x00, 0x29, 0x02, 0x00, 0x54, 0xfb, 0xf8,
  0x14, 0xe0, 0x03, 0x52, 0xf4, 0xf7, 0x0d, 0x21, 0x03, 0x75, 0x1c, 0x65,
  0x07, 0xeb, 0x24, 0xfe, 0x0f, 0x0b, 0x07, 0x18, 0x23, 0xfe, 0x0c, 0x12,
  0x00, 0xf3, 0xf9, 0x08, 0x04, 0x11, 0x0d, 0x0f, 0xef, 0xfe, 0xf4, 0x0a,
  0xf1, 0x57, 0x24, 0x1a, 0x54, 0xe4, 0x20, 0x06, 0x2f, 0xef, 0x24, 0x32,
  0x2d, 0xe4, 0x4a, 0xc4, 0xee, 0x3a, 0xe8, 0x11, 0x12, 0x2b, 0x18, 0xe7,
  0xf8, 0xe8, 0x14, 0xeb, 0xcb, 0x32, 0xcf, 0xf9, 0xed, 0xf9, 0x5e, 0x19,
  0xf7, 0xfc, 0xd4, 0xf2, 0x5f, 0xe1, 0xfc, 0xf2, 0x1e, 0xfe, 0x08, 0x02,
  0x20, 0xe1, 0x1c, 0x1a, 0x00, 0x17, 0x14, 0xe8, 0xf1, 0xbb, 0x03, 0xf7,
  0xf1, 0xe9, 0x28, 0x33, 0xd9, 0x03, 0x0b, 0x00, 0x23, 0x19, 0x51, 0xe9,
  0xec, 0xf1, 0xf5, 0x19, 0x18, 0xfe, 0xf5, 0xf5, 0xee, 0xe9, 0x07, 0xf8,
  0x06, 0x0d, 0xd1, 0xfb, 0xfc, 0xe2, 0xed, 0x0b, 0xde, 0x0c, 0xff, 0xe3,
  0x0f, 0xf7, 0x1b, 0x09, 0xfc, 0xea, 0xfd, 0xcf, 0x1e, 0x1c, 0x02, 0x05,
  0x05, 0xfc, 0xd9, 0xf8, 0x01, 0x08, 0x1a, 0x01, 0x02, 0xfd, 0xfd, 0x1d,
  0xf8, 0xf7, 0x0c, 0xdf, 0xf5, 0x02, 0xeb, 0x10, 0x1b, 0xe9, 0xf5, 0x10,
  0x0c, 0xcd, 0x1c, 0x0a, 0xe0, 0x0e, 0xe6, 0x07, 0x08, 0xe7, 0x03, 0x08,
  0xf4, 0xe9, 0x36, 0x04, 0xec, 0xeb, 0xfd, 0xfd, 0x2e, 0x06, 0xf2, 0xf1,
  0x0a, 0xd1, 0xeb, 0xef, 0xfb, 0x05, 0xd4, 0x15, 0x17, 0x0f, 0x16, 0xfb,
  0x18, 0xeb, 0x0e, 0x12, 0x01, 0x15, 0xea, 0xfc, 0xee, 0xc4, 0xf0, 0xed,
  0x05, 0x11, 0xe4, 0xf1, 0x0d, 0x11, 0x20, 0xde, 0x02, 0xea, 0x0f, 0x1e,
  0x1e, 0x00, 0x17, 0xec, 0xdf, 0x15, 0xee, 0xf9, 0x19, 0x08, 0x00, 0xff,
  0x28, 0x19, 0x01, 0xcb, 0x0d, 0x24, 0x10, 0xf4, 0xe7, 0x0b, 0x1b, 0x08,
  0xc1, 0x01, 0xfc, 0xf3, 0x1b, 0xf8, 0x07, 0x28, 0xf1, 0xe1, 0x20, 0x24,
  0x12, 0x2b, 0x1b, 0x37, 0xfe, 0x05, 0xec, 0xea, 0x18, 0x3c, 0xf0, 0x20,
  0x29, 0xf5, 0xd5, 0x19, 0xd5, 0xdc, 0xd2, 0xe0, 0xd0, 0xce, 0x2f, 0xee,
  0x25, 0xca, 0xd1, 0x23, 0x17, 0x0c, 0x15, 0x01, 0x31, 0x05, 0x0c, 0xfb,
  0x2d, 0xd8, 0x16, 0x30, 0xfb, 0x1a, 0x1b, 0x0f, 0x09, 0x47, 0xea, 0xec,
  0xf1, 0x43, 0x04, 0x1f, 0x47, 0x1d, 0x29, 0xec, 0x03, 0x4e, 0x03, 0x29,
  0xea, 0x02, 0x23, 0xdd, 0xde, 0xd5, 0xef, 0x16, 0x02, 0x09, 0xfe, 0xfa,
  0x13, 0xf3, 0xeb, 0x1e, 0x34, 0x1c, 0x10, 0xf1, 0x04, 0xf1, 0xff, 0x01,
  0xf7, 0x15, 0xe9, 0xf3, 0x0e, 0x16, 0x11, 0x1d, 0xde, 0x08, 0x02, 0x09,
  0x2b, 0x1c, 0x21, 0xf9, 0x0e, 0xf1, 0xcf, 0x31, 0x17, 0x15, 0x0b, 0xd8,
  0x12, 0x23, 0x0b, 0xfc, 0xe9, 0x0a, 0x16, 0xfc, 0xe4, 0x0d, 0xf7, 0x04,
  0x19, 0x10, 0x02, 0x18, 0x15, 0xee, 0x18, 0x08, 0xe6, 0x27, 0x2b, 0x19,
  0x02, 0xf1, 0xfb, 0xf8, 0x03, 0x05, 0xf5, 0x0c, 0x1a, 0x0b, 0xee, 0x26,
  0xdd, 0xdf, 0xf6, 0xf1, 0xdf, 0xd8, 0x1a, 0x04, 0x12, 0xde, 0xe5, 0x20,
  0x21, 0x24, 0x08, 0xed, 0x17, 0xea, 0x13, 0x08, 0x25, 0xe6, 0x02, 0xe6,
  0x05, 0x0b, 0xfa, 0x08, 0x02, 0x18, 0x02, 0xea, 0xf5, 0x08, 0x06, 0x22,
  0x03, 0x14, 0x2a, 0x05, 0xf5, 0x39, 0x09, 0x24, 0xed, 0xfc, 0x3f, 0xee,
  0xea, 0xe3, 0xfc, 0x02, 0x0c, 0x04, 0xed, 0xf2, 0x29, 0x10, 0xfa, 0x14,
  0x10, 0x0d, 0x0c, 0xee, 0x00, 0xd6, 0xf3, 0xf4, 0x11, 0x09, 0xdc, 0xfc,
  0xf7, 0x05, 0xf9, 0x0a, 0x17, 0xee, 0x10, 0x15, 0x15, 0x0e, 0x06, 0x0f,
  0x1a, 0xf5, 0xe8, 0x2f, 0x33, 0xf5, 0xef, 0xff, 0xef, 0x08, 0xf5, 0xf4,
  0xf5, 0xf3, 0x0a, 0xf6, 0xff, 0x0f, 0xfa, 0xef, 0x13, 0xf3, 0xf8, 0x35,
  0xe4, 0xfa, 0x11, 0x18, 0xfb, 0x44, 0xe0, 0x21, 0xeb, 0xd4, 0x0c, 0xef,
  0x06, 0xf9, 0xf5, 0x08, 0xf7, 0xdd, 0x00, 0x0a, 0xf7, 0x0c, 0x08, 0x11,
  0xfb, 0xed, 0x04, 0xe7, 0xf9, 0x04, 0xfb, 0x1f, 0xfb, 0x1a, 0x1d, 0xec,
  0x30, 0x10, 0xff, 0xee, 0x08, 0xec, 0xf4, 0x2c, 0x24, 0x1d, 0x2a, 0xf2,
  0xf1, 0x29, 0xf8, 0xee, 0xee, 0x14, 0x06, 0xf3, 0x04, 0x11, 0x1f, 0xf5,
  0xdc, 0x29, 0xf5, 0xee, 0xe9, 0x0a, 0x36, 0xf0, 0xf8, 0xf0, 0xee, 0xf3,
  0x05, 0xe2, 0xe6, 0xeb, 0x0c, 0x24, 0xe8, 0x26, 0x1e, 0x1c, 0x20, 0xf0,
  0x00, 0x0d, 0x1d, 0x21, 0x11, 0xef, 0xfe, 0x29, 0xeb, 0xf7, 0x0e, 0x16,
  0xf2, 0xfa, 0x18, 0x05, 0x18, 0x19, 0x56, 0xea, 0xd8, 0xfe, 0xee, 0x30,
  0x01, 0xf4, 0xfe, 0xf4, 0xf1, 0xf3, 0x12, 0xfb, 0x0a, 0xe4, 0x01, 0xf7,
  0x0a, 0xf4, 0xf8, 0x08, 0xf0, 0x29, 0xe4, 0xf3, 0x15, 0xf2, 0x07, 0x05,
  0xe0, 0x13, 0xe8, 0xf5, 0xfb, 0x1a, 0xec, 0xfb, 0x15, 0x07, 0xfc, 0x05,
  0x0b, 0x05, 0xfe, 0xff, 0xfd, 0xf8, 0x04, 0xf1, 0xfc, 0xf0, 0x0c, 0xed,
  0xfc, 0xf7, 0xf5, 0xf8, 0xf0, 0xff, 0xed, 0xf3, 0xfb, 0xe3, 0x15, 0xf6,
  0xfd, 0xf5, 0x03, 0x11, 0xfb, 0xee, 0xec, 0xfb, 0xff, 0xe2, 0x0d, 0xf8,
  0x01, 0x00, 0x1e, 0x09, 0x0d, 0xf2, 0xf2, 0xfd, 0x23, 0xfc, 0x00, 0xf9,
  0x13, 0x21, 0xf1, 0x03, 0xfa, 0xf6, 0x2f, 0xfd, 0xf0, 0x00, 0x06, 0x07,
  0x09, 0x07, 0xf8, 0xe5, 0x01, 0xe4, 0xe2, 0x03, 0x0a, 0x08, 0x08, 0x03,
  0x15, 0x18, 0x02, 0xfe, 0xfb, 0xe8, 0xfe, 0x12, 0x01, 0x16, 0xe4, 0x07,
  0x07, 0xe8, 0x00, 0xf9, 0xec, 0xf8, 0xf4, 0xf2, 0x2d, 0xdf, 0xe1, 0x05,
  0xe1, 0xe3, 0x1a, 0x00, 0x01, 0x13, 0xca, 0xe9, 0x16, 0xbf, 0x0c, 0xf2,
  0xe6, 0x06, 0xf8, 0xd0, 0x0e, 0x09, 0x01, 0x0c, 0xeb, 0xd6, 0xf3, 0xb2,
  0x1c, 0x1c, 0x00, 0xfd, 0x00, 0xfb, 0xf3, 0x18, 0xd0, 0x15, 0x03, 0x09,
  0xf9, 0x16, 0x08, 0x0e, 0xee, 0x08, 0xd0, 0x06, 0xd6, 0x03, 0xf3, 0xe5,
  0xe5, 0x06, 0xd1, 0xe2, 0xca, 0xce, 0x19, 0x0b, 0xb5, 0x10, 0xec, 0xf1,
  0xf2, 0xd2, 0xe5, 0x12, 0xf0, 0x01, 0x2f, 0xf4, 0xd5, 0x0a, 0xd4, 0xe1,
  0x22, 0xfe, 0xf9, 0xe0, 0x10, 0xea, 0xc4, 0xf0, 0x0c, 0x29, 0xdb, 0x11,
  0xf3, 0x10, 0x2e, 0xdf, 0xd3, 0xed, 0xff, 0x18, 0xf1, 0xee, 0xed, 0x1e,
  0xeb, 0xb1, 0x02, 0x04, 0xfe, 0x08, 0xed, 0xd1, 0xfb, 0xfc, 0x16, 0xef,
  0x0e, 0xeb, 0xef, 0xfe, 0x02, 0x06, 0x0e, 0xe3, 0x01, 0xf5, 0xe2, 0xf2,
  0x05, 0x0d, 0xeb, 0xdd, 0x29, 0x1c, 0x05, 0xad, 0x14, 0x21, 0x14, 0x04,
  0xd7, 0xf9, 0x23, 0x0c, 0xc9, 0x1a, 0xf6, 0xf9, 0x1b, 0xf9, 0xf5, 0x21,
  0xf1, 0xdb, 0x33, 0x12, 0x02, 0x3d, 0x05, 0x32, 0xf6, 0xf9, 0xec, 0xef,
  0x00, 0x31, 0x04, 0x02, 0x14, 0x05, 0xd3, 0x25, 0xed, 0xd3, 0xda, 0x0f,
  0xcc, 0xcf, 0x3b, 0x10, 0x26, 0xc4, 0xbc, 0x35, 0x0e, 0x21, 0x1c, 0xf1,
  0x4e, 0x16, 0xfc, 0x16, 0x29, 0xcb, 0x20, 0x06, 0x05, 0x10, 0x10, 0xf6,
  0x13, 0x55, 0xf1, 0xe8, 0xfe, 0x37, 0x07, 0x1f, 0x24, 0x0d, 0x55, 0xfa,
  0xf8, 0x6e, 0x11, 0x29, 0xf2, 0xdc, 0x1c, 0xd8, 0xda, 0xec, 0xf2, 0x0c,
  0x3a, 0xf2, 0xf6, 0x13, 0x13, 0x27, 0xf2, 0x13, 0x25, 0x0a, 0x2b, 0xf8,
  0x0c, 0xed, 0x28, 0x08, 0x01, 0xfb, 0xe8, 0xff, 0xee, 0x1a, 0xee, 0x17,
  0xe9, 0x00, 0x10, 0xee, 0x40, 0x25, 0x44, 0xfd, 0x0a, 0x00, 0xe3, 0x68,
  0x46, 0x0c, 0x05, 0x04, 0xdc, 0x07, 0xe6, 0xfc, 0x0e, 0x00, 0x06, 0x17,
  0xfc, 0x4b, 0x0a, 0x05, 0x1f, 0xd7, 0xf1, 0x1c, 0x00, 0xf3, 0x19, 0x23,
  0xfb, 0x0f, 0x08, 0x42, 0x13, 0xd4, 0x1b, 0xf8, 0xf9, 0x0e, 0xfd, 0x06,
  0x35, 0xf0, 0x04, 0x0d, 0xf7, 0x11, 0xee, 0x13, 0x0a, 0x03, 0x12, 0xfc,
  0xf0, 0xfa, 0x09, 0x10, 0xfc, 0xff, 0x19, 0xf1, 0x17, 0x02, 0x1d, 0x1a,
  0x0b, 0x03, 0x08, 0x19, 0xea, 0xe7, 0x35, 0xeb, 0x12, 0x55, 0x03, 0xf8,
  0x02, 0x45, 0x17, 0xeb, 0xf5, 0x07, 0x2c, 0xfb, 0xe8, 0x41, 0xe5, 0x03,
  0xce, 0x10, 0x4c, 0xee, 0xf4, 0x11, 0xec, 0xda, 0x31, 0xee, 0x14, 0xe9,
  0x12, 0x08, 0x11, 0x10, 0x2d, 0x0c, 0x24, 0x10, 0xfc, 0x13, 0x1e, 0x0c,
  0x02, 0xd6, 0x01, 0x0a, 0xf0, 0x10, 0x09, 0x10, 0xec, 0x0b, 0x17, 0xeb,
  0x1f, 0x08, 0x16, 0xd3, 0xc9, 0xf6, 0xf7, 0x26, 0x4b, 0xfc, 0xf9, 0x05,
  0xea, 0xd6, 0xec, 0xf8, 0x10, 0x0a, 0x0e, 0x12, 0xf2, 0x25, 0xfe, 0x08,
  0x19, 0xfa, 0x12, 0x3c, 0xf9, 0xfb, 0x08, 0xf4, 0xe9, 0x48, 0x0a, 0x35,
  0x01, 0xf4, 0x02, 0x16, 0x0f, 0x07, 0x03, 0xf9, 0x0a, 0xdc, 0x23, 0x14,
  0xfa, 0xf9, 0x02, 0x05, 0xf1, 0x08, 0x2e, 0x09, 0xfd, 0x0a, 0xff, 0x12,
  0xf8, 0x34, 0x1f, 0xf7, 0x16, 0xf2, 0x23, 0xfb, 0x25, 0xf8, 0x18, 0x26,
  0x07, 0xe6, 0x32, 0xda, 0xf7, 0x3d, 0xec, 0xfc, 0xfc, 0x15, 0x14, 0xe8,
  0xef, 0xde, 0x13, 0xf6, 0xd8, 0x47, 0xe4, 0xf9, 0xd9, 0x07, 0x38, 0x02,
  0xfa, 0x1c, 0xe8, 0x05, 0x3b, 0xdb, 0x15, 0xf5, 0x18, 0x16, 0xf9, 0xfb,
  0x10, 0xfa, 0x27, 0x04, 0xff, 0xf8, 0x21, 0x16, 0xfb, 0xe9, 0x0e, 0x1d,
  0x02, 0xf4, 0xfc, 0x16, 0x06, 0xfe, 0x09, 0xff, 0x14, 0x02, 0x3d, 0xe9,
  0xe7, 0x08, 0x0e, 0xfd, 0xf0, 0x11, 0x1f, 0x15, 0x20, 0xea, 0x16, 0x21,
  0x04, 0xfe, 0xfd, 0xda, 0xd4, 0xd0, 0x13, 0x0b, 0xd5, 0x1f, 0xd2, 0xd5,
  0x0e, 0x14, 0xfe, 0xa7, 0x1d, 0xc9, 0x0d, 0xcc, 0x07, 0x20, 0xf5, 0x0f,
  0x10, 0x10, 0xf6, 0xf9, 0xcf, 0x0c, 0xf5, 0xf1, 0xe7, 0x06, 0xf6, 0x09,
  0xf6, 0xff, 0x04, 0x07, 0xfd, 0x09, 0x10, 0x9b, 0x24, 0xc7, 0xda, 0x01,
  0xbe, 0xf0, 0x09, 0x17, 0xcb, 0xf5, 0xea, 0xdc, 0x06, 0xd9, 0xe0, 0x0f,
  0x10, 0xc5, 0x19, 0xea, 0x19, 0xe9, 0xfb, 0x27, 0x0c, 0x05, 0xff, 0xfc,
  0x19, 0xb8, 0xe6, 0x1e, 0x03, 0x02, 0xd2, 0xe8, 0xfc, 0x04, 0x1a, 0x17,
  0xf0, 0x25, 0xf9, 0xf1, 0xd7, 0xee, 0xff, 0x0a, 0xfa, 0xf3, 0xf2, 0xfa,
  0x0e, 0x0c, 0x03, 0xe0, 0x11, 0x06, 0x05, 0xe6, 0x03, 0x0b, 0x0b, 0x0f,
  0x1b, 0x13, 0x06, 0x19, 0xda, 0xd5, 0x9f, 0xfd, 0x05, 0xe3, 0x1b, 0xee,
  0x22, 0x1b, 0xf9, 0x07, 0xe0, 0xf5, 0x14, 0xe2, 0xfb, 0xfb, 0x01, 0x07,
  0xff, 0x2f, 0xea, 0xf4, 0x20, 0xf1, 0x15, 0x4a, 0x08, 0x00, 0x1e, 0x2a,
  0x0f, 0x75, 0xf2, 0x41, 0xf5, 0xe9, 0xfe, 0xfe, 0xea, 0x0d, 0xfa, 0x20,
  0x28, 0xfb, 0xf6, 0x18, 0x0a, 0xf2, 0xfd, 0xee, 0xfc, 0xf2, 0x27, 0xf6,
  0xf6, 0xfa, 0xf0, 0x4a, 0xed, 0x25, 0x26, 0x04, 0x2b, 0x1c, 0x06, 0x02,
  0x15, 0xfb, 0x0a, 0x36, 0x22, 0x03, 0x2c, 0xdb, 0xfe, 0x27, 0xee, 0x0d,
  0xf7, 0x05, 0x1a, 0x01, 0x14, 0x05, 0x40, 0x05, 0xe6, 0x2d, 0xff, 0x00,
  0xd5, 0xf0, 0x3a, 0xef, 0xed, 0x00, 0xf0, 0x08, 0x2b, 0x0b, 0xc9, 0xf6,
  0x1d, 0x11, 0x0f, 0x0e, 0x2f, 0xfe, 0x1e, 0x01, 0x22, 0x08, 0xfd, 0xeb,
  0xfe, 0xfe, 0xfe, 0x18, 0xf0, 0x08, 0x1e, 0x14, 0xe9, 0x02, 0x04, 0x07,
  0x13, 0x1b, 0x5a, 0xe0, 0xca, 0x0b, 0xfd, 0x1f, 0x03, 0xf6, 0x19, 0x14,
  0x02, 0xec, 0xe8, 0x17, 0x1b, 0x0f, 0xd8, 0xfd, 0x0a, 0xe1, 0xe5, 0x08,
  0x0d, 0x03, 0xfa, 0xc9, 0xe5, 0xf0, 0xe7, 0xf3, 0xd5, 0x03, 0xe8, 0xdd,
  0xf5, 0x0c, 0x0c, 0x03, 0xed, 0xfe, 0xd0, 0x06, 0xf4, 0xfd, 0x0e, 0x0d,
  0x1a, 0x03, 0x01, 0x06, 0x02, 0x16, 0xd9, 0x0d, 0xf7, 0xeb, 0xfb, 0xf5,
  0xe7, 0xec, 0xd5, 0xfb, 0x00, 0xce, 0xe8, 0x05, 0xcb, 0x0d, 0xed, 0x0f,
  0x12, 0x00, 0xf8, 0x22, 0x0f, 0xe9, 0x0f, 0xf3, 0x01, 0xed, 0x18, 0x10,
  0xfa, 0xdd, 0xe9, 0xd3, 0xf1, 0xee, 0xd3, 0xf8, 0xff, 0x16, 0x00, 0xea,
  0x21, 0x0a, 0x0e, 0xeb, 0x0d, 0xf8, 0xfe, 0x11, 0xe9, 0xeb, 0xf4, 0xf1,
  0xfa, 0xd5, 0x18, 0x10, 0x27, 0x1a, 0xf4, 0xda, 0xf6, 0x13, 0x11, 0xe4,
  0xed, 0x02, 0xe5, 0x10, 0x0b, 0x16, 0x21, 0xdf, 0xc8, 0x1e, 0xf3, 0x09,
  0x0e, 0x11, 0x1d, 0xe5, 0xf2, 0x0a, 0x0a, 0x02, 0x16, 0x1b, 0xef, 0x10,
  0x0d, 0xea, 0x2d, 0x21, 0xf7, 0x0a, 0x0a, 0x06, 0x1c, 0xf9, 0x36, 0x24,
  0x05, 0xf2, 0x02, 0x22, 0x21, 0x06, 0x21, 0x3e, 0xef, 0x00, 0x05, 0x1c,
  0x1b, 0x17, 0x25, 0x18, 0x1b, 0x15, 0xfc, 0xe7, 0x04, 0x06, 0xfd, 0x07,
  0x04, 0x03, 0x0b, 0x22, 0x2b, 0xfb, 0xfd, 0x14, 0x1f, 0x15, 0x36, 0x24,
  0xe2, 0xfa, 0x1c, 0xcf, 0x3b, 0x04, 0x04, 0x07, 0x2c, 0xf3, 0x01, 0xe2,
  0x0b, 0xf8, 0x12, 0x08, 0x03, 0xee, 0x0e, 0x29, 0x07, 0x17, 0x1a, 0x32,
  0xe9, 0x11, 0x07, 0xf8, 0xf4, 0xf1, 0xfe, 0xf9, 0x02, 0x04, 0xf0, 0x0f,
  0x15, 0x30, 0x03, 0xf6, 0x2d, 0x0d, 0xfd, 0x0a, 0x0a, 0x23, 0xfe, 0x13,
  0x14, 0xf1, 0xed, 0x05, 0x1d, 0xea, 0xff, 0xe5, 0x08, 0xff, 0x06, 0xf9,
  0x02, 0xdc, 0x0f, 0x1f, 0x34, 0x26, 0x10, 0x02, 0xe8, 0xf8, 0x12, 0x18,
  0x23, 0xf7, 0xe3, 0x03, 0xe9, 0xbf, 0xed, 0x18, 0x07, 0x18, 0xbd, 0xeb,
  0x03, 0xcd, 0xe7, 0x0b, 0xeb, 0x0e, 0xf3, 0xcd, 0xf8, 0xec, 0xec, 0x11,
  0xe4, 0x07, 0xe3, 0xb5, 0x0f, 0x19, 0xfb, 0x00, 0xec, 0x00, 0xd7, 0x0a,
  0xd2, 0xfc, 0x11, 0x19, 0xf6, 0x07, 0xfc, 0x08, 0x10, 0x09, 0x12, 0x14,
  0xef, 0xfb, 0xfa, 0x23, 0x08, 0xe5, 0xff, 0xed, 0xf7, 0xe8, 0xf3, 0x05,
  0xb4, 0xfa, 0xe3, 0x17, 0x0a, 0xd2, 0xf2, 0x1d, 0x0b, 0xfe, 0xfe, 0xf0,
  0xf9, 0xf6, 0x01, 0x07, 0x24, 0x03, 0xfd, 0xf1, 0xf5, 0xe0, 0xc7, 0x0d,
  0x1b, 0x1c, 0xe1, 0x22, 0xf3, 0x0b, 0x20, 0xd0, 0xef, 0xf5, 0x06, 0x00,
  0x07, 0x02, 0xf2, 0xf4, 0xff, 0xae, 0x13, 0xfc, 0x0f, 0x01, 0xf9, 0x00,
  0x12, 0x19, 0xff, 0xdd, 0x0b, 0xec, 0xe6, 0x1e, 0x0e, 0x07, 0x1a, 0xfa,
  0xee, 0x30, 0xde, 0x04, 0x0b, 0x17, 0xe5, 0xd8, 0x24, 0x31, 0xfd, 0xeb,
  0x05, 0x09, 0xf6, 0xf8, 0xf7, 0xcd, 0x15, 0x04, 0xec, 0x27, 0xef, 0xf0,
  0x1f, 0xe9, 0x1a, 0x43, 0xea, 0x00, 0x0b, 0x35, 0x08, 0x72, 0xfb, 0x3f,
  0xfe, 0xfb, 0x12, 0xef, 0x11, 0x1d, 0x03, 0x05, 0xfd, 0x04, 0xf9, 0x22,
  0x04, 0x10, 0xf9, 0xf8, 0xe9, 0xdb, 0x2c, 0x05, 0xfa, 0x11, 0xf4, 0x0f,
  0xf3, 0x68, 0x0d, 0x06, 0x67, 0xfa, 0x04, 0xea, 0x25, 0x12, 0x10, 0x1a,
  0x19, 0xfd, 0x34, 0xf5, 0x1f, 0x55, 0xda, 0xd6, 0x01, 0x29, 0x00, 0x0a,
  0x34, 0x09, 0x22, 0x00, 0xdf, 0x62, 0x0f, 0xfc, 0xf2, 0xed, 0x54, 0xec,
  0x0b, 0x05, 0x04, 0x1a, 0x37, 0xd9, 0xe7, 0xf9, 0x20, 0x25, 0xe4, 0x0f,
  0x1c, 0x08, 0x2c, 0x00, 0x15, 0xfa, 0x08, 0xd7, 0xf1, 0xf2, 0x05, 0xff,
  0xf0, 0xf0, 0x02, 0x26, 0xfb, 0x04, 0x10, 0xf9, 0x48, 0x03, 0x46, 0xea,
  0xe9, 0xee, 0xf9, 0x4f, 0x16, 0xe6, 0x01, 0x08, 0x03, 0x11, 0xe2, 0xf8,
  0xec, 0xeb, 0x26, 0x0a, 0x0a, 0x3c, 0x2a, 0x11, 0x2d, 0xdf, 0x18, 0x4a,
  0x00, 0xff, 0x09, 0x56, 0x1b, 0x30, 0x10, 0x3b, 0x17, 0x08, 0x06, 0x10,
  0x1d, 0x19, 0xf9, 0x32, 0x20, 0xf9, 0x00, 0x17, 0x06, 0x06, 0x18, 0x1e,
  0x04, 0x00, 0x0a, 0x0a, 0x24, 0x2b, 0x09, 0x1f, 0x0c, 0x36, 0x18, 0x1a,
  0x2c, 0x1b, 0x2b, 0xe7, 0x45, 0x12, 0x26, 0x3f, 0x13, 0x1e, 0x2b, 0xf5,
  0xfd, 0x38, 0x0f, 0x14, 0x00, 0xf8, 0x3a, 0xe1, 0x38, 0x0a, 0x2f, 0xf3,
  0xf8, 0x58, 0x28, 0x01, 0x1b, 0xeb, 0x44, 0x12, 0x1c, 0xed, 0x06, 0x03,
  0x2e, 0xe9, 0x16, 0x0f, 0x32, 0x0d, 0x10, 0xfb, 0x12, 0x2a, 0x0c, 0x08,
  0x2e, 0x2d, 0x22, 0x1a, 0x0a, 0xfd, 0x03, 0x18, 0xef, 0xdc, 0x1f, 0x12,
  0xed, 0x10, 0x26, 0x01, 0x26, 0x33, 0x26, 0xf6, 0xeb, 0x0e, 0x13, 0x13,
  0x18, 0xe8, 0xea, 0x0a, 0xd1, 0xdc, 0x0c, 0xfa, 0x07, 0x17, 0x9f, 0xfd,
  0x15, 0xb5, 0xfb, 0xe3, 0xeb, 0x08, 0xf5, 0xcf, 0x06, 0x01, 0xfd, 0xe8,
  0xeb, 0xd0, 0xcb, 0xa8, 0x14, 0x02, 0x0e, 0x0d, 0xe3, 0xf4, 0xc7, 0x0c,
  0xed, 0xed, 0x10, 0x2f, 0x00, 0x0c, 0x07, 0x03, 0x14, 0x0a, 0xf2, 0xf9,
  0xd6, 0x03, 0x02, 0xf2, 0xe3, 0x08, 0xeb, 0xdf, 0xee, 0xc8, 0xe7, 0x07,
  0x98, 0x11, 0xcf, 0xe8, 0xf6, 0xaf, 0xca, 0x33, 0x07, 0xcd, 0x16, 0xda,
  0xe0, 0x0b, 0xee, 0xfa, 0x1e, 0x00, 0xe2, 0xde, 0xf4, 0xdb, 0xbe, 0x0c,
  0x06, 0x08, 0xb5, 0x1b, 0x01, 0x0e, 0x2f, 0xee, 0xc9, 0xfe, 0x02, 0x0c,
  0xfc, 0x0f, 0xe6, 0x05, 0xfc, 0xad, 0xff, 0x01, 0x37, 0x12, 0xfb, 0xd5,
  0x04, 0x13, 0x0e, 0xb8, 0x25, 0xee, 0xe7, 0x0d, 0xfc, 0x0b, 0x34, 0xee,
  0xf2, 0x01, 0xfd, 0xfa, 0x1e, 0x11, 0x0a, 0xd0, 0xf9, 0xef, 0xf3, 0xfd,
  0xe4, 0xf9, 0x11, 0x05, 0x06, 0xfe, 0xd5, 0x0e, 0x15, 0xcc, 0x10, 0xfe,
  0xcb, 0x2a, 0xe3, 0xa7, 0xfd, 0xfb, 0xfe, 0xfe, 0x04, 0xe8, 0xda, 0xa7,
  0x0c, 0x10, 0x08, 0xf9, 0xec, 0xd3, 0xf4, 0xfb, 0xca, 0xed, 0x06, 0x0a,
  0x0a, 0x12, 0x28, 0x11, 0x13, 0xfa, 0xf2, 0x10, 0xf2, 0x05, 0x01, 0xc6,
  0xd7, 0xd9, 0xdf, 0xf3, 0xe3, 0xd7, 0xfa, 0x11, 0xaa, 0x02, 0xf0, 0xed,
  0xf8, 0xf0, 0xd6, 0x19, 0x09, 0xd3, 0x01, 0xe2, 0xed, 0xf5, 0xe7, 0xfb,
  0x1f, 0x05, 0xd4, 0xd7, 0x14, 0xd2, 0xd1, 0xe6, 0xf6, 0x0f, 0xd0, 0x14,
  0xee, 0xf0, 0x0d, 0xf6, 0xce, 0xeb, 0x05, 0x0c, 0xe6, 0xec, 0xfa, 0x0a,
  0xdf, 0xbd, 0xf8, 0xf7, 0x07, 0x02, 0xe1, 0xd6, 0x02, 0xfe, 0xef, 0xc1,
  0xf2, 0xf6, 0x1b, 0xec, 0x22, 0x20, 0xf2, 0x06, 0xd0, 0x0d, 0xe9, 0x11,
  0x03, 0xf7, 0xf7, 0xc1, 0x2f, 0x1a, 0xd9, 0x03, 0xe7, 0x1d, 0xeb, 0xec,
  0xd9, 0xe2, 0x31, 0xe7, 0x0e, 0x0f, 0x04, 0xf7, 0xe9, 0x00, 0x26, 0x21,
  0xef, 0xff, 0x10, 0x1c, 0x23, 0x79, 0xd6, 0x12, 0xe8, 0xf1, 0x05, 0xeb,
  0x03, 0x01, 0xf2, 0x17, 0x2e, 0xd8, 0xff, 0x0c, 0xff, 0xff, 0x01, 0x01,
  0xf4, 0xee, 0x0f, 0xde, 0x00, 0x03, 0x09, 0x29, 0xff, 0x75, 0x13, 0xed,
  0x2b, 0x1d, 0x15, 0xe4, 0x2b, 0x02, 0x10, 0x3d, 0xeb, 0x2f, 0x27, 0xce,
  0x18, 0x70, 0xe8, 0xec, 0xf2, 0x1b, 0x01, 0xef, 0xfe, 0x19, 0x2c, 0x08,
  0xf1, 0x3f, 0x16, 0xf0, 0xec, 0x11, 0x35, 0xf1, 0x05, 0x04, 0xe4, 0x03,
  0x16, 0xf6, 0xf4, 0xd1, 0x19, 0x11, 0xdd, 0x01, 0x00, 0x14, 0x18, 0x0b,
  0x15, 0xef, 0x01, 0x3d, 0x00, 0xef, 0x01, 0x28, 0xe5, 0xee, 0x15, 0x15,
  0xfb, 0xf7, 0xfd, 0x1a, 0x11, 0x33, 0x63, 0xec, 0xcf, 0xe3, 0x11, 0x29,
  0xe6, 0xf0, 0x13, 0x13, 0x10, 0xf6, 0x10, 0x15, 0x0e, 0x12, 0xeb, 0xdc,
  0x0d, 0xcf, 0x02, 0xda, 0xeb, 0x15, 0xf4, 0xb2, 0x0f, 0xe8, 0xdb, 0xd5,
  0xec, 0xd3, 0xdd, 0xc2, 0x00, 0xfe, 0x07, 0x0f, 0x03, 0xeb, 0xeb, 0x1b,
  0xc5, 0x10, 0x13, 0xf4, 0x1e, 0x0f, 0xf6, 0xfd, 0xfd, 0x05, 0xbc, 0x10,
  0xdd, 0x0b, 0x00, 0xe7, 0xf1, 0xd1, 0xbf, 0xe2, 0xb5, 0xc2, 0xd7, 0x20,
  0x95, 0x0d, 0xf2, 0xc3, 0xe6, 0xdd, 0xd9, 0x2a, 0x01, 0xbc, 0xf5, 0xe4,
  0xed, 0xe5, 0xbc, 0xfc, 0x03, 0x1e, 0xe7, 0xe3, 0xe2, 0xc3, 0xcc, 0xf9,
  0x01, 0xeb, 0xbf, 0x17, 0x14, 0x02, 0x1d, 0xe2, 0xf6, 0xfa, 0x0a, 0xf9,
  0xdd, 0xf7, 0x06, 0xf8, 0xed, 0xde, 0xf6, 0x0d, 0x0b, 0x1a, 0xef, 0xca,
  0x1c, 0x13, 0x12, 0xe1, 0x1b, 0xff, 0xfe, 0x15, 0x0a, 0x16, 0xf7, 0xe5,
  0xbf, 0x0a, 0xae, 0x0c, 0x16, 0xfe, 0x1e, 0x03, 0x0d, 0x0b, 0xf7, 0x19,
  0xf8, 0x07, 0xe4, 0xfc, 0x0b, 0xde, 0xf7, 0x02, 0x15, 0x65, 0x00, 0x14,
  0x0e, 0xd4, 0x06, 0x2b, 0x02, 0xf3, 0xff, 0xfe, 0x0f, 0x1c, 0x11, 0x4f,
  0x00, 0xea, 0x10, 0x07, 0x03, 0xfb, 0x21, 0x1b, 0x40, 0xd5, 0xfb, 0x20,
  0x19, 0x01, 0xfd, 0x14, 0x08, 0x12, 0xf1, 0xfd, 0x0d, 0x10, 0x11, 0x1f,
  0xf8, 0x26, 0xf4, 0x1a, 0x1f, 0x20, 0x0c, 0xf3, 0x2f, 0x05, 0x17, 0x3c,
  0x06, 0x24, 0x3a, 0xde, 0xf7, 0x28, 0xfd, 0x07, 0xf4, 0x16, 0x24, 0x09,
  0x08, 0x16, 0x2d, 0x03, 0xd9, 0x35, 0x33, 0xfd, 0xe5, 0x02, 0x33, 0xea,
  0x09, 0x05, 0x02, 0xe8, 0x05, 0xeb, 0x15, 0xfd, 0x0a, 0x28, 0x12, 0xec,
  0x24, 0x26, 0x24, 0xfd, 0x13, 0xfc, 0x28, 0x4c, 0xf9, 0xdb, 0x05, 0x41,
  0x03, 0xea, 0x09, 0xf0, 0x15, 0xde, 0x23, 0xfd, 0xfa, 0x0b, 0x36, 0xe9,
  0xe6, 0x13, 0x07, 0x15, 0x35, 0x05, 0xe2, 0x04, 0x0a, 0xe0, 0x04, 0xee,
  0xe4, 0x2b, 0x36, 0x18, 0x00, 0x21, 0x09, 0xed, 0x15, 0x1c, 0x19, 0x39,
  0x01, 0xe4, 0x0f, 0x46, 0xf0, 0x33, 0xef, 0x22, 0x05, 0x0d, 0xff, 0xe8,
  0x21, 0x11, 0xef, 0x04, 0x18, 0xf9, 0xfa, 0x1a, 0xf0, 0xf6, 0xe6, 0xf6,
  0xfe, 0xdd, 0x25, 0x17, 0xe4, 0xed, 0xdb, 0x04, 0xdb, 0x0c, 0x19, 0x15,
  0x53, 0xf6, 0x0d, 0xf9, 0x0f, 0xeb, 0x0b, 0x1f, 0x19, 0x06, 0x18, 0x07,
  0x02, 0x0f, 0xff, 0xf3, 0xdf, 0x23, 0x04, 0x20, 0x29, 0xea, 0x4a, 0x24,
  0xe3, 0x43, 0xe8, 0x13, 0xe3, 0x11, 0x24, 0xea, 0xf4, 0x09, 0x24, 0x08,
  0x17, 0xdd, 0xf9, 0x01, 0x1b, 0x1f, 0x04, 0x15, 0x0b, 0xe9, 0x37, 0xfb,
  0x0f, 0xfc, 0x13, 0xdd, 0xf1, 0xf4, 0xfd, 0xf8, 0xef, 0xf1, 0xf1, 0x0c,
  0xfd, 0x23, 0x0a, 0x1f, 0x48, 0x25, 0x35, 0xe6, 0xf3, 0xe7, 0xfd, 0x2f,
  0x21, 0x0f, 0xf4, 0x01, 0xe5, 0xfd, 0x01, 0xf3, 0x04, 0xf9, 0x15, 0x1e,
  0x04, 0x1c, 0xea, 0x07, 0xf1, 0xf8, 0xee, 0x35, 0xf5, 0xf7, 0xef, 0x15,
  0x22, 0x78, 0xf8, 0x3e, 0xfa, 0xe7, 0xf7, 0xec, 0xf6, 0xf8, 0x17, 0xfb,
  0x18, 0xe9, 0x01, 0x13, 0x02, 0x05, 0xfb, 0x0c, 0x03, 0xdf, 0x20, 0xe5,
  0x02, 0xe8, 0xfa, 0x03, 0xf4, 0x46, 0x1c, 0xf5, 0x1f, 0x1d, 0x23, 0xde,
  0x37, 0xfe, 0x19, 0x21, 0x00, 0x1e, 0x3e, 0xf2, 0x0c, 0x24, 0xf5, 0x2e,
  0x0b, 0x1d, 0x13, 0xe8, 0x11, 0xff, 0x1f, 0x05, 0xfc, 0x2b, 0x0b, 0xfb,
  0xdc, 0x04, 0x21, 0xf2, 0xfc, 0xe1, 0xeb, 0xdb, 0x12, 0xf2, 0xf6, 0xd9,
  0x1b, 0xee, 0x05, 0x0c, 0x16, 0x18, 0x07, 0xf9, 0x04, 0xf7, 0x1c, 0x3e,
  0xe8, 0x03, 0x0d, 0x1c, 0x0c, 0xfc, 0x2c, 0x0f, 0xfd, 0xe0, 0x19, 0xfc,
  0x24, 0x16, 0x68, 0xef, 0xde, 0x11, 0xfb, 0x15, 0xdd, 0xfe, 0x10, 0x02,
  0x18, 0x3a, 0xd5, 0x0c, 0xf5, 0xfc, 0x20, 0x0f, 0x01, 0x1e, 0x13, 0x2a,
  0x22, 0x01, 0x0d, 0x2a, 0x08, 0x06, 0x06, 0x03, 0x27, 0x17, 0x09, 0x3e,
  0x1e, 0xf1, 0x1e, 0x13, 0x25, 0x23, 0x2c, 0x30, 0x2e, 0x1b, 0xfe, 0xfa,
  0x04, 0xfd, 0x12, 0xf9, 0x03, 0x09, 0x12, 0x26, 0x14, 0x06, 0x02, 0x10,
  0x07, 0x01, 0x15, 0x0f, 0xef, 0x05, 0x27, 0xf4, 0x43, 0x0d, 0x0c, 0x0b,
  0xf2, 0x1e, 0x2c, 0xe6, 0x13, 0xea, 0x0d, 0x0c, 0x03, 0x08, 0x0d, 0x15,
  0xfe, 0x26, 0x07, 0x27, 0x02, 0x2e, 0x29, 0x07, 0xfc, 0x08, 0x0b, 0xf9,
  0x10, 0xfa, 0xe7, 0x06, 0xef, 0x1a, 0x03, 0x17, 0x12, 0xfd, 0x12, 0x02,
  0x06, 0x11, 0x0c, 0x14, 0x10, 0x0f, 0x03, 0xf9, 0x0b, 0xe9, 0x0d, 0xf0,
  0xff, 0x09, 0x2e, 0x00, 0xf8, 0xed, 0x06, 0x01, 0x21, 0x13, 0xf2, 0x15,
  0xf5, 0x17, 0x03, 0x07, 0x1c, 0x23, 0x05, 0xd4, 0x1d, 0x06, 0x07, 0xee,
  0xfb, 0x0f, 0x1b, 0x12, 0xdd, 0x09, 0xf3, 0xee, 0x11, 0xf3, 0x0a, 0x1d,
  0x05, 0xde, 0x1e, 0x1d, 0x05, 0x3d, 0x06, 0x3e, 0x02, 0xf7, 0xfe, 0xf6,
  0x13, 0x0e, 0x06, 0x0b, 0x35, 0xfc, 0xe1, 0x28, 0xd2, 0xda, 0xd4, 0xf9,
  0xce, 0xd0, 0x2d, 0xf5, 0x22, 0xdb, 0xbe, 0x05, 0xff, 0x24, 0x00, 0xff,
  0x29, 0x08, 0xf9, 0xf4, 0x2f, 0xbd, 0xfd, 0x11, 0x22, 0x0f, 0x24, 0xfe,
  0xfa, 0x4b, 0xe1, 0xf3, 0x02, 0x18, 0x13, 0x12, 0x20, 0x06, 0x2b, 0x01,
  0xff, 0x34, 0x00, 0x26, 0xee, 0xe8, 0x3e, 0xe1, 0xeb, 0xe2, 0xff, 0x11,
  0x29, 0xf5, 0xf5, 0x06, 0x13, 0xf2, 0xde, 0x25, 0x22, 0x07, 0x0a, 0xff,
  0x1a, 0xf1, 0x0f, 0x10, 0xf6, 0x14, 0xfa, 0x03, 0x1d, 0xfb, 0x00, 0x0f,
  0xf0, 0x16, 0x0d, 0x12, 0x2b, 0x23, 0x2b, 0x09, 0x01, 0xfd, 0xd8, 0x32,
  0x1a, 0xea, 0x01, 0xe6, 0xf7, 0xea, 0x16, 0xe2, 0x1f, 0xfe, 0xee, 0xf8,
  0x0d, 0xbe, 0xee, 0x04, 0xed, 0xe3, 0xdf, 0xd2, 0x19, 0x0d, 0x08, 0xce,
  0x05, 0xc3, 0xdf, 0xbc, 0xe6, 0x05, 0xec, 0xf9, 0xf2, 0xfc, 0xe5, 0x05,
  0xe3, 0x08, 0xfc, 0x0c, 0x16, 0x05, 0xf8, 0x13, 0xdf, 0xff, 0xd0, 0xfc,
  0xde, 0x1e, 0xf8, 0xe9, 0xe9, 0xd9, 0xd6, 0xfe, 0xed, 0xe3, 0x09, 0x06,
  0xb6, 0x19, 0xe9, 0xe3, 0xe4, 0xc8, 0xf4, 0xf0, 0xed, 0xe6, 0x13, 0xeb,
  0xf0, 0x08, 0x04, 0xf8, 0x16, 0xfe, 0xed, 0xfb, 0x16, 0xf0, 0xfd, 0xe2,
  0xff, 0x0a, 0xe8, 0x2b, 0x0b, 0x0b, 0x0f, 0xd1, 0xeb, 0xf3, 0x0d, 0xf1,
  0x09, 0xe2, 0xe2, 0x09, 0xed, 0xc9, 0x02, 0x12, 0x0b, 0x0c, 0xe5, 0xe2,
  0x17, 0xf9, 0x23, 0xda, 0x07, 0xec, 0xf5, 0x1c, 0x17, 0x05, 0xfb, 0xfb,
  0xe1, 0x1e, 0x08, 0x11, 0xe8, 0x12, 0x05, 0x00, 0x0c, 0xfa, 0x0b, 0xfe,
  0x05, 0x23, 0xd6, 0xfc, 0xfb, 0xdf, 0x0b, 0x09, 0xfb, 0x52, 0x13, 0x07,
  0x24, 0xf0, 0x1d, 0x4a, 0xec, 0xdd, 0x0f, 0x31, 0x14, 0x14, 0x32, 0x77,
  0x04, 0xe0, 0x00, 0x06, 0x21, 0xf1, 0xd5, 0x01, 0x27, 0x06, 0x02, 0xef,
  0xfb, 0xf1, 0xf3, 0x00, 0xfb, 0x05, 0xfd, 0x04, 0x06, 0xed, 0x08, 0x23,
  0xe6, 0x1c, 0x2c, 0x02, 0xff, 0x2a, 0x1f, 0xfd, 0x3f, 0x01, 0x0c, 0xfc,
  0x06, 0x33, 0x23, 0xe0, 0x0b, 0x25, 0xf7, 0x1f, 0xee, 0x17, 0x22, 0xf9,
  0xf0, 0xff, 0x07, 0x15, 0xf0, 0x44, 0x2d, 0x00, 0xf4, 0x16, 0x32, 0x01,
  0x0c, 0xfc, 0xe0, 0xeb, 0xfa, 0xfd, 0x0e, 0xf1, 0x0e, 0x1e, 0x01, 0xfa,
  0x0b, 0x1c, 0x18, 0x04, 0x0d, 0x00, 0x0f, 0x18, 0xed, 0xd0, 0x08, 0x32,
  0xea, 0x09, 0xfe, 0xf8, 0xf4, 0x04, 0x0a, 0xff, 0x1e, 0xef, 0x0c, 0xec,
  0xe5, 0x0b, 0xfd, 0x00, 0x32, 0xd8, 0xe8, 0x14, 0xcf, 0xd8, 0x0c, 0xf0,
  0x06, 0x05, 0xe0, 0xd4, 0xfe, 0xcd, 0xf9, 0x09, 0x03, 0x06, 0xe8, 0xf4,
  0xf9, 0x00, 0xe1, 0x0a, 0x04, 0x07, 0xc9, 0xb8, 0x1a, 0x04, 0xfe, 0x06,
  0xd6, 0xe5, 0xf8, 0x06, 0xe2, 0xff, 0x0d, 0x1d, 0x07, 0xf3, 0xee, 0xfa,
  0x08, 0x0a, 0xf5, 0x11, 0xe2, 0x02, 0x04, 0x09, 0x05, 0xda, 0xf2, 0xf9,
  0xf7, 0xcc, 0xea, 0x18, 0xbf, 0x03, 0xfb, 0xfc, 0xef, 0xc4, 0xe9, 0x05,
  0x02, 0xca, 0x05, 0xfa, 0x07, 0xe2, 0x19, 0xf4, 0x09, 0xf2, 0xe3, 0xfc,
  0xfd, 0xf8, 0xb8, 0x01, 0x09, 0x10, 0xe5, 0x16, 0x00, 0x0c, 0x0b, 0xdf,
  0xfc, 0x0a, 0x04, 0xfe, 0xf4, 0x1c, 0xe0, 0x05, 0xee, 0xba, 0xfb, 0x0e,
  0x17, 0xfe, 0xf5, 0xea, 0x00, 0x08, 0xfe, 0xde, 0x03, 0x07, 0xfd, 0x00,
  0x2d, 0x1d, 0x0d, 0x0e, 0xe3, 0x19, 0x0f, 0x09, 0xfd, 0x00, 0x12, 0xe1,
  0xff, 0x05, 0x2b, 0xf4, 0x03, 0x02, 0x21, 0x08, 0xfd, 0xd4, 0x14, 0x12,
  0xd3, 0x14, 0x2a, 0x11, 0xff, 0x0b, 0xef, 0x04, 0xdc, 0x0f, 0x01, 0x09,
  0x29, 0x16, 0x10, 0x2a, 0x06, 0x14, 0x06, 0x05, 0x0b, 0x24, 0x03, 0x11,
  0xef, 0xe9, 0xe7, 0x16, 0xe4, 0xef, 0xe7, 0xec, 0xfe, 0xfa, 0x1b, 0x1f,
  0xf3, 0xd8, 0xdb, 0x27, 0x21, 0x42, 0x18, 0xe8, 0x03, 0x0f, 0x1f, 0x03,
  0x1e, 0xe1, 0xf4, 0x3a, 0x34, 0xf3, 0x20, 0xda, 0x0f, 0xfb, 0x00, 0x10,
  0x05, 0x0b, 0x03, 0x0d, 0x1e, 0x00, 0x1a, 0x05, 0x0f, 0xfe, 0x09, 0x1b,
  0x10, 0x03, 0x0c, 0xee, 0xf2, 0x0a, 0xf7, 0x18, 0xf7, 0x22, 0xf4, 0xee,
  0x18, 0x2b, 0xfb, 0x18, 0xe3, 0xfe, 0xf5, 0x02, 0x0d, 0xfa, 0xf4, 0xff,
  0x13, 0xfd, 0xf1, 0x0b, 0x0b, 0x05, 0xfa, 0x42, 0x03, 0xff, 0xfe, 0x15,
  0x24, 0x22, 0x14, 0x06, 0xc8, 0xe6, 0xf1, 0x0a, 0x2a, 0x01, 0x01, 0x02,
  0xd8, 0xc9, 0x07, 0x10, 0x26, 0x0d, 0xb7, 0xe0, 0x23, 0xba, 0x0a, 0xf0,
  0xd0, 0x11, 0xea, 0x9b, 0x16, 0x17, 0xf7, 0xe6, 0xf9, 0xe4, 0xc6, 0xa3,
  0x15, 0x1d, 0x02, 0xec, 0xec, 0xf4, 0xc1, 0xfe, 0xd2, 0xf9, 0x06, 0x0a,
  0x0e, 0x08, 0xf1, 0xff, 0x0f, 0x09, 0xf9, 0xf7, 0xe4, 0xf4, 0x0d, 0xd1,
  0xf1, 0xe9, 0xc2, 0xe2, 0xe3, 0xcd, 0xdf, 0x13, 0xa4, 0x06, 0xe2, 0xfa,
  0x06, 0xd2, 0xcd, 0xfb, 0x07, 0xf8, 0x12, 0xd1, 0x0d, 0xec, 0xfb, 0xe3,
  0x13, 0xe4, 0xe7, 0xde, 0x04, 0xbd, 0xb1, 0x03, 0x02, 0x04, 0xcb, 0x0e,
  0x09, 0x09, 0xff, 0xf4, 0xde, 0x01, 0xec, 0x0c, 0xca, 0xed, 0xe5, 0x0b,
  0xf4, 0xc9, 0x12, 0xf7, 0x13, 0x11, 0xe1, 0xd2, 0x0d, 0x0b, 0x1b, 0xd1,
  0x17, 0xd7, 0xe8, 0xfd, 0xfd, 0x1f, 0xfa, 0xe4, 0xc7, 0x11, 0xed, 0x17,
  0xfe, 0xe6, 0x1d, 0xfc, 0xea, 0x07, 0x1c, 0xe6, 0x13, 0x11, 0x16, 0x29,
  0xf2, 0xe3, 0x00, 0x06, 0xe8, 0xd8, 0x0f, 0x37, 0x0a, 0x2d, 0x17, 0xd5,
  0x0e, 0x11, 0xfd, 0xe1, 0x16, 0xcd, 0x33, 0x12, 0x12, 0x1b, 0x07, 0x30,
  0xf4, 0x10, 0x03, 0x04, 0xfb, 0xfd, 0x1a, 0x02, 0xde, 0xfb, 0xea, 0xfa,
  0x04, 0xf5, 0x27, 0x1b, 0x0e, 0xf4, 0x05, 0xf8, 0x0c, 0xf8, 0x2a, 0xe4,
  0xdd, 0xed, 0xfc, 0x06, 0x0b, 0xe5, 0xfd, 0xe4, 0x27, 0x0f, 0xdf, 0xef,
  0x26, 0xe1, 0x10, 0x26, 0x2b, 0xfd, 0x01, 0x1f, 0xf9, 0x01, 0x12, 0x2d,
  0x1a, 0x9a, 0xf7, 0x09, 0x1d, 0x13, 0xf8, 0x07, 0x07, 0xe3, 0xfe, 0x08,
  0xf9, 0x2b, 0xff, 0xe6, 0x03, 0x09, 0x17, 0x12, 0xdd, 0xef, 0x03, 0x11,
  0x00, 0x02, 0xe2, 0x0f, 0x2b, 0x0c, 0xed, 0x04, 0xfe, 0x19, 0x11, 0x16,
  0x01, 0x11, 0xea, 0x1f, 0xec, 0xed, 0xe0, 0xec, 0xee, 0x15, 0x00, 0xf7,
  0x2d, 0x28, 0xf7, 0xde, 0xf9, 0x11, 0xeb, 0xed, 0x04, 0xe5, 0x4b, 0x0a,
  0x01, 0x2c, 0xfd, 0xeb, 0x06, 0xef, 0x01, 0x3c, 0xea, 0xe2, 0x27, 0x27,
  0x0e, 0x0a, 0x13, 0x37, 0x02, 0x05, 0x02, 0xec, 0x19, 0x05, 0x16, 0xf6,
  0x1b, 0xee, 0xe1, 0x17, 0xf7, 0x04, 0xef, 0xeb, 0xf7, 0x04, 0x20, 0x01,
  0x14, 0xeb, 0xfd, 0x2b, 0x13, 0x0d, 0x1e, 0x1c, 0x18, 0x30, 0x11, 0x17,
  0x02, 0x05, 0xfa, 0x1a, 0x1b, 0x24, 0x1f, 0xff, 0xf4, 0x41, 0xe4, 0xf4,
  0x00, 0x14, 0x12, 0x09, 0x1d, 0x08, 0x4e, 0xee, 0xe9, 0x52, 0x11, 0x1c,
  0xec, 0xe8, 0x28, 0xdc, 0x16, 0xfb, 0xf9, 0x00, 0x01, 0xff, 0xec, 0xfa,
  0x30, 0xf0, 0xed, 0x12, 0x2e, 0x11, 0x2a, 0x03, 0x12, 0x0e, 0xe9, 0x03,
  0xef, 0xfe, 0xfb, 0x15, 0xe3, 0xff, 0x24, 0x0a, 0xe2, 0x04, 0x1e, 0xf1,
  0x29, 0x07, 0x13, 0x04, 0xe5, 0x05, 0xee, 0x52, 0x2a, 0x2b, 0xe3, 0xee,
  0x12, 0x0e, 0x14, 0xfe, 0xf6, 0x29, 0x25, 0x09, 0xe1, 0x15, 0xfa, 0xf0,
  0x22, 0x09, 0x13, 0x41, 0x03, 0xfd, 0x20, 0x0a, 0xfa, 0x50, 0xfd, 0x35,
  0xf2, 0xfb, 0xfe, 0xe0, 0xf3, 0x38, 0xff, 0x10, 0x1a, 0xeb, 0xc7, 0x34,
  0xe6, 0xe6, 0xe5, 0x0e, 0xe2, 0xf0, 0x2c, 0x0b, 0xfa, 0xda, 0xf6, 0xff,
  0x00, 0x24, 0x16, 0x05, 0x4d, 0xfc, 0x0d, 0x0d, 0x19, 0xeb, 0x06, 0x39,
  0x06, 0x12, 0x11, 0x05, 0x0c, 0x6f, 0xea, 0xdb, 0xf0, 0x25, 0x0c, 0x22,
  0x24, 0x2c, 0x1d, 0x1b, 0x04, 0x31, 0x10, 0x1b, 0xd7, 0xfb, 0x2d, 0xe1,
  0xd2, 0x06, 0x07, 0x09, 0x24, 0xeb, 0xed, 0xf6, 0x23, 0x1f, 0xdd, 0x11,
  0x1c, 0xf1, 0x24, 0xe3, 0xfd, 0x17, 0x1d, 0xe1, 0x0e, 0xfb, 0xdf, 0xe0,
  0xfd, 0xfc, 0x20, 0x16, 0xf7, 0x05, 0x23, 0x06, 0x24, 0x16, 0x2d, 0xdd,
  0xe9, 0xec, 0xf8, 0x52, 0x15, 0x10, 0xf7, 0xd3, 0x18, 0x0c, 0x0f, 0xe6,
  0xf7, 0x14, 0x17, 0x38, 0xdd, 0x00, 0xf9, 0xf4, 0x08, 0xf7, 0x08, 0x16,
  0xdb, 0xee, 0x0f, 0x24, 0x27, 0x34, 0x1a, 0x57, 0xe7, 0xe5, 0x15, 0xe4,
  0xfc, 0x1f, 0x03, 0x36, 0x1b, 0xef, 0xd7, 0x20, 0xdf, 0xd8, 0xd1, 0xd8,
  0xd9, 0xcc, 0x27, 0xf6, 0x03, 0xd5, 0xc6, 0x11, 0xef, 0x35, 0x2e, 0xf2,
  0x23, 0x13, 0xf2, 0x04, 0x2a, 0xd9, 0x04, 0x1e, 0xfe, 0xfa, 0x22, 0x02,
  0x0f, 0x55, 0xf0, 0xdf, 0x03, 0x21, 0x00, 0x24, 0x3a, 0x0a, 0x35, 0x09,
  0xfc, 0x46, 0x17, 0xf9, 0xf4, 0xe5, 0x23, 0xd9, 0xe2, 0xe3, 0x0b, 0xfe,
  0x11, 0xe0, 0xfa, 0xfa, 0x38, 0xed, 0xf6, 0x1b, 0x32, 0x13, 0x11, 0x04,
  0x1a, 0x0f, 0x21, 0xf6, 0x07, 0x0e, 0xe3, 0xfd, 0x05, 0x03, 0x0a, 0x1e,
  0xe7, 0x0b, 0x02, 0x0c, 0x31, 0x16, 0xf6, 0x06, 0x08, 0xf6, 0xe2, 0x2d,
  0x12, 0xf4, 0x06, 0x00, 0xe5, 0xe2, 0xff, 0x05, 0xfc, 0x05, 0xdd, 0xf3,
  0xff, 0xcc, 0x07, 0xfb, 0x04, 0x16, 0x04, 0x01, 0x0c, 0xfc, 0xfd, 0xf4,
  0xf5, 0xf3, 0x0f, 0xc6, 0x17, 0xff, 0x0c, 0xf2, 0x11, 0xf5, 0xf9, 0x24,
  0xd1, 0x17, 0x0f, 0xf7, 0xf3, 0x17, 0x1d, 0x0b, 0xe6, 0xff, 0x01, 0x14,
  0x05, 0x0a, 0x07, 0x20, 0x09, 0xe3, 0xf4, 0x03, 0xdf, 0xe5, 0xf5, 0x18,
  0xdc, 0x0d, 0xf8, 0xff, 0x1a, 0x06, 0xe3, 0xe5, 0xfc, 0xff, 0x16, 0x02,
  0xfd, 0x0a, 0xfe, 0x0b, 0x15, 0xee, 0xf0, 0xff, 0xee, 0xe0, 0xcc, 0x03,
  0x11, 0x0e, 0x0d, 0x11, 0xf4, 0xe6, 0x0c, 0xd2, 0xfa, 0xf6, 0xfb, 0x15,
  0xf8, 0xdf, 0xfc, 0x06, 0xef, 0xa9, 0x05, 0xf2, 0x09, 0x1f, 0xe3, 0xed,
  0x03, 0x09, 0x0b, 0xdc, 0x0f, 0x0d, 0xd8, 0xfe, 0x0f, 0x13, 0x10, 0xf1,
  0xf7, 0x43, 0x10, 0xfe, 0x12, 0x0d, 0xf8, 0x07, 0x06, 0x0d, 0x03, 0x00,
  0xf8, 0xe5, 0xf2, 0x05, 0x15, 0x15, 0xd9, 0x26, 0xfd, 0xe1, 0x16, 0xea,
  0x03, 0xf7, 0xf9, 0xf3, 0x08, 0xf8, 0x11, 0x1d, 0x01, 0xfb, 0xf9, 0x0c,
  0x1a, 0x04, 0x05, 0xdb, 0xdf, 0x13, 0xce, 0xfd, 0x08, 0x0b, 0x05, 0xec,
  0x0a, 0x03, 0xf9, 0x13, 0xf3, 0x08, 0xef, 0x01, 0x14, 0xef, 0xfd, 0xfb,
  0xf8, 0xfe, 0x02, 0x04, 0xed, 0xee, 0x19, 0x24, 0x12, 0x05, 0x17, 0x00,
  0xe4, 0xe6, 0x0f, 0x09, 0x10, 0x10, 0xf9, 0x0c, 0xf5, 0xf8, 0xf9, 0xe7,
  0x10, 0xfd, 0xf7, 0xf2, 0x02, 0x11, 0xf3, 0xe9, 0xfa, 0x0a, 0x1d, 0xf9,
  0xec, 0x03, 0x03, 0xdd, 0xf2, 0xf3, 0x15, 0x01, 0x18, 0xf5, 0xf8, 0xfe,
  0x18, 0xf5, 0x0a, 0xfb, 0x16, 0x0c, 0xdc, 0xdc, 0x18, 0x02, 0xfc, 0xfa,
  0x0e, 0xfd, 0x05, 0x06, 0x0b, 0x05, 0xf0, 0xfd, 0x0e, 0x30, 0xf1, 0x06,
  0xf6, 0xeb, 0x02, 0x01, 0x1f, 0x07, 0x02, 0x10, 0xfd, 0x06, 0xfe, 0xf4,
  0x02, 0xf6, 0x0a, 0x05, 0x06, 0x61, 0x04, 0x08, 0x38, 0xe4, 0x00, 0x4a,
  0xff, 0xec, 0x17, 0x13, 0x0a, 0x5a, 0x22, 0x5c, 0x17, 0xef, 0x0d, 0xf6,
  0x08, 0x3a, 0xee, 0x27, 0x13, 0xfc, 0x03, 0xf1, 0xe9, 0x09, 0x03, 0x1c,
  0x00, 0x15, 0xf7, 0x0f, 0x03, 0x04, 0xf9, 0x11, 0xf8, 0x2c, 0x19, 0xf7,
  0x3d, 0x0e, 0x1c, 0xfd, 0x52, 0xfe, 0x27, 0x13, 0x27, 0xf9, 0x44, 0xc6,
  0x0a, 0x49, 0x06, 0x0b, 0xf7, 0x10, 0x07, 0xf6, 0xd9, 0xfc, 0x0f, 0x1e,
  0xec, 0x37, 0xd5, 0xe7, 0xd6, 0x0d, 0x43, 0xff, 0xfe, 0x07, 0xd1, 0xdb,
  0x2e, 0xe6, 0xfd, 0xe1, 0x11, 0x25, 0x17, 0xf3, 0x15, 0xf6, 0x1f, 0x0e,
  0x1c, 0x0f, 0x27, 0x30, 0xf2, 0xc4, 0x05, 0x30, 0x0b, 0x08, 0x06, 0x22,
  0xfc, 0xfe, 0x0c, 0xd6, 0x22, 0xf6, 0x5b, 0xdc, 0xb7, 0x0b, 0xf5, 0x08,
  0xec, 0xea, 0x07, 0x07, 0x06, 0xd2, 0x02, 0xef, 0x04, 0x11, 0xe1, 0xf7,
  0x0d, 0xbb, 0xff, 0xdf, 0xec, 0x10, 0xe9, 0xb2, 0xea, 0x04, 0xfb, 0xdd,
  0xf4, 0xac, 0xe5, 0xb3, 0x09, 0xfd, 0xf6, 0x0d, 0xe9, 0xf0, 0xe9, 0xed,
  0xa9, 0x05, 0xf0, 0xf2, 0xfe, 0x18, 0x0d, 0x16, 0x05, 0x15, 0x04, 0x00,
  0xde, 0x01, 0x10, 0xcb, 0xec, 0xba, 0xcd, 0xf1, 0xe8, 0xef, 0xf2, 0xfa,
  0xba, 0xfd, 0xc8, 0xd6, 0xec, 0xcd, 0xdd, 0x12, 0x0b, 0xbc, 0x11, 0xf0,
  0x03, 0xef, 0xd9, 0x05, 0x05, 0xf4, 0xe7, 0xc7, 0x14, 0xad, 0xd4, 0x0b,
  0x07, 0xf0, 0xd5, 0xfe, 0x06, 0x19, 0xff, 0x17, 0xf6, 0xff, 0x0c, 0x06,
  0xe0, 0xf4, 0x04, 0x06, 0xde, 0xc3, 0xe6, 0xf9, 0xfb, 0x13, 0xde, 0xc8,
  0x20, 0x24, 0xec, 0xd9, 0xe7, 0x00, 0x1b, 0x15, 0x05, 0x19, 0xe7, 0x04,
  0x8d, 0x0c, 0xb3, 0x14, 0x0a, 0xe6, 0x20, 0xf3, 0x4a, 0x17, 0xf3, 0x06,
  0xff, 0xfc, 0xfd, 0x01, 0x00, 0xf6, 0x20, 0xe5, 0x0c, 0x73, 0x14, 0xfa,
  0x16, 0xef, 0x1c, 0x43, 0xf7, 0xe3, 0x1e, 0x21, 0x07, 0x7c, 0x07, 0x74,
  0x08, 0xed, 0x09, 0xfe, 0x22, 0x0a, 0x0d, 0x07, 0x26, 0xf8, 0xf4, 0x21,
  0xfc, 0xf4, 0xf0, 0x00, 0x06, 0xfb, 0x2e, 0x01, 0xef, 0xfd, 0x03, 0x29,
  0xe6, 0x4e, 0x14, 0x06, 0x41, 0xf4, 0x22, 0xf8, 0x2c, 0x06, 0x1b, 0x4e,
  0x29, 0x08, 0x44, 0xc3, 0x01, 0x30, 0x09, 0x09, 0xf1, 0x15, 0x0d, 0xe5,
  0x03, 0xfe, 0x1f, 0x03, 0xdf, 0x5d, 0xdd, 0xe4, 0xda, 0xe9, 0x42, 0x10,
  0x0a, 0x14, 0xea, 0xf4, 0x4b, 0xe0, 0xeb, 0xee, 0x34, 0x43, 0xe8, 0xfd,
  0x1a, 0xf3, 0x22, 0x00, 0xf8, 0x04, 0x29, 0xec, 0xf0, 0xdc, 0x0b, 0x18,
  0xde, 0xec, 0x0d, 0x28, 0xe9, 0x15, 0x19, 0x06, 0x27, 0x11, 0x6c, 0xdb,
  0xe9, 0xde, 0x0c, 0x15, 0x06, 0xe7, 0xf2, 0x10, 0xcd, 0xd2, 0x02, 0x06,
  0xff, 0x1b, 0xac, 0xf4, 0x15, 0xcf, 0xe8, 0xff, 0xee, 0x22, 0xd2, 0xc3,
  0x0d, 0x00, 0x0d, 0x05, 0xf1, 0xec, 0xd8, 0xaf, 0x21, 0xf9, 0x00, 0x02,
  0xf1, 0x0e, 0xda, 0x06, 0xca, 0xf8, 0x09, 0x00, 0x0a, 0xfd, 0xfc, 0x15,
  0x02, 0xfe, 0xf1, 0xf6, 0xd4, 0x08, 0x11, 0xe5, 0xf1, 0xe2, 0xda, 0xe5,
  0xed, 0xd7, 0x11, 0x0d, 0x94, 0x09, 0xf3, 0xff, 0xec, 0xc2, 0xe8, 0x0d,
  0x03, 0xef, 0x0c, 0xf3, 0xfd, 0x07, 0x08, 0xf0, 0x19, 0xe7, 0x01, 0xc1,
  0xeb, 0xd1, 0xcc, 0xf0, 0xf7, 0x26, 0xdf, 0x1c, 0x0a, 0x08, 0x17, 0xc6,
  0xee, 0xf6, 0x09, 0x00, 0xf2, 0x0a, 0xf5, 0x00, 0x0e, 0xd1, 0xff, 0xf5,
  0x18, 0x0b, 0x00, 0xc9, 0x17, 0x09, 0x1e, 0xcc, 0x0f, 0xfc, 0xfd, 0x0e,
  0x15, 0x1b, 0x20, 0xff, 0xd6, 0x1c, 0xf8, 0x0a, 0x0a, 0x06, 0x0f, 0xdb,
  0x21, 0x0b, 0x04, 0xc6, 0x0a, 0x07, 0x13, 0xf1, 0xea, 0x01, 0x19, 0x0e,
  0xcf, 0xfa, 0xfc, 0xe1, 0x29, 0xf5, 0x07, 0x22, 0x01, 0xcf, 0x13, 0x10,
  0x10, 0x34, 0x12, 0x32, 0xfb, 0x09, 0xf9, 0xec, 0x3a, 0x0a, 0x17, 0xf9,
  0x28, 0x00, 0xe0, 0x2a, 0xce, 0xd2, 0xc8, 0xfc, 0xd2, 0xe2, 0x21, 0x12,
  0x1a, 0xd4, 0xdf, 0x23, 0x0a, 0x29, 0x2e, 0xfa, 0x29, 0x1c, 0x0a, 0x10,
  0x1d, 0xd1, 0xfd, 0x07, 0xfe, 0x0b, 0x16, 0x16, 0xfb, 0x51, 0xdd, 0xf6,
  0xf6, 0x2a, 0x22, 0x16, 0x25, 0x13, 0x17, 0x07, 0xfb, 0x35, 0x15, 0x35,
  0xf3, 0xe0, 0x16, 0xfa, 0xff, 0xf8, 0xe7, 0x10, 0x1d, 0xf7, 0x05, 0x0a,
  0x32, 0x1b, 0xf6, 0xff, 0x3e, 0x0e, 0x1a, 0xe3, 0x03, 0x16, 0x0c, 0xf8,
  0x05, 0x01, 0xe6, 0xf8, 0x14, 0x0d, 0xe9, 0x0e, 0x07, 0x1a, 0x13, 0x1f,
  0x2c, 0x1a, 0x25, 0x14, 0x17, 0xe5, 0xf6, 0x48, 0x17, 0x36, 0xf2, 0xe1,
  0x1a, 0x15, 0x14, 0xec, 0x0b, 0x27, 0x30, 0x1a, 0xd5, 0x0c, 0xee, 0xe8,
  0x09, 0xf9, 0x05, 0x37, 0xe8, 0xec, 0x12, 0x47, 0xf3, 0x0e, 0xfb, 0x19,
  0x0c, 0xfa, 0x05, 0xe6, 0x11, 0x12, 0xf4, 0x02, 0x30, 0xfc, 0xca, 0x36,
  0xdc, 0xe5, 0xe4, 0xda, 0xe2, 0xc7, 0x37, 0x08, 0x1d, 0xea, 0xd5, 0x30,
  0x12, 0x0d, 0x0e, 0xf9, 0x53, 0x00, 0x26, 0xfa, 0x2b, 0xe9, 0x0f, 0x07,
  0x20, 0x1f, 0x1d, 0xfe, 0x04, 0x62, 0xe6, 0xda, 0xfd, 0x2e, 0x01, 0x15,
  0x0a, 0x15, 0x52, 0x08, 0xf3, 0x3b, 0xff, 0x3a, 0xe2, 0x03, 0x06, 0xde,
  0xdd, 0xf6, 0xf9, 0xff, 0x11, 0xe9, 0xef, 0x08, 0x30, 0x07, 0xe2, 0x1e,
  0x25, 0x1a, 0x15, 0x0f, 0x0a, 0xe7, 0x06, 0xef, 0x02, 0x0b, 0xed, 0x08,
  0x01, 0x14, 0xfd, 0x2c, 0xf4, 0x06, 0x16, 0x11, 0x1e, 0x1a, 0x33, 0x0a,
  0x08, 0xf9, 0xe1, 0x27, 0xf8, 0x1a, 0xf5, 0xce, 0x1b, 0x0f, 0x1d, 0xe6,
  0xfa, 0x21, 0x26, 0x14, 0xee, 0x15, 0x07, 0xf3, 0x12, 0x04, 0xfd, 0x13,
  0xfa, 0xea, 0x1e, 0x09, 0xda, 0x04, 0x10, 0x21, 0xf6, 0x0c, 0xe8, 0xf6,
  0x04, 0xf6, 0xfd, 0xfe, 0x38, 0x0e, 0xe3, 0x1a, 0xdd, 0xdc, 0xd0, 0xf8,
  0xcf, 0xd5, 0x1a, 0x05, 0x0a, 0xd4, 0xd4, 0x31, 0xf7, 0xfc, 0x26, 0xfd,
  0x28, 0x07, 0xfb, 0xfe, 0x1e, 0xd7, 0x0d, 0x15, 0xfe, 0x03, 0xf8, 0x01,
  0xf6, 0x47, 0xfc, 0xf1, 0xe5, 0x30, 0x0a, 0x12, 0x40, 0x03, 0x40, 0x0f,
  0x04, 0x22, 0x00, 0x28, 0xf4, 0x08, 0x35, 0xcf, 0xd0, 0xef, 0x00, 0x1f,
  0x13, 0xf1, 0xf2, 0xf9, 0x09, 0x13, 0xef, 0x14, 0x16, 0xfd, 0x0f, 0xf7,
  0x17, 0xf6, 0x13, 0x0d, 0xf5, 0xf2, 0xf8, 0x00, 0xf7, 0x0b, 0xf8, 0x31,
  0xe8, 0x02, 0x0a, 0x0a, 0x47, 0x19, 0x1b, 0x01, 0x0a, 0xf5, 0xd7, 0x1c,
  0x48, 0x09, 0xfd, 0xfe, 0xdd, 0xdf, 0x00, 0xf4, 0x11, 0x0d, 0x06, 0x13,
  0x09, 0x1b, 0xf2, 0x0c, 0x18, 0xf4, 0xf6, 0x16, 0xff, 0xe7, 0x08, 0x20,
  0xf3, 0x32, 0x17, 0x1e, 0x0b, 0xec, 0x0b, 0xdf, 0x07, 0x25, 0xea, 0x1f,
  0x1e, 0xe0, 0x07, 0x1a, 0x03, 0x08, 0x03, 0x0d, 0x05, 0x11, 0xfc, 0xe9,
  0xf4, 0xfb, 0x02, 0xff, 0xe7, 0x27, 0x07, 0xdf, 0x1a, 0x12, 0x18, 0x09,
  0x1d, 0x0f, 0xfc, 0x1e, 0x18, 0x14, 0x1e, 0xf9, 0xe7, 0x1f, 0x10, 0x14,
  0xf7, 0x4d, 0x0b, 0xe8, 0x15, 0x04, 0x2c, 0xf0, 0xea, 0x2f, 0xe8, 0xec,
  0xeb, 0xfc, 0x43, 0x15, 0xe4, 0x09, 0xf7, 0xd2, 0x2f, 0xec, 0x07, 0xff,
  0xf6, 0x20, 0x05, 0xe9, 0x25, 0xfb, 0x28, 0xf9, 0xe2, 0x07, 0x17, 0x0a,
  0xef, 0xe1, 0xf9, 0x12, 0xe1, 0xfe, 0xfe, 0x1f, 0x09, 0x0e, 0x29, 0x03,
  0x16, 0x1d, 0x4f, 0xfa, 0xf4, 0x0f, 0x08, 0x10, 0x96, 0xe3, 0xff, 0xff,
  0x04, 0x00, 0x00, 0x00, 0x00, 0x17, 0x00, 0x00, 0x10, 0xe4, 0xfb, 0x04,
  0xfe, 0xff, 0xfe, 0x06, 0x1a, 0x14, 0x19, 0xf9, 0x08, 0x00, 0x08, 0x02,
  0x03, 0xed, 0xe5, 0xf5, 0x01, 0xff, 0xfd, 0xfc, 0x05, 0x05, 0x0d, 0xf8,
  0xfb, 0x05, 0x11, 0x01, 0x01, 0xe0, 0x01, 0xe3, 0xef, 0xdc, 0xef, 0x07,
  0xfe, 0xe2, 0x04, 0x00, 0x03, 0xd0, 0xf0, 0xdd, 0x0c, 0x02, 0xfe, 0xfd,
  0xff, 0xff, 0xfa, 0x00, 0xf0, 0xf4, 0x03, 0xfb, 0x01, 0xf1, 0xf9, 0xe6,
  0xdf, 0xf9, 0xe9, 0xfc, 0xfc, 0x03, 0x04, 0x03, 0xf5, 0x02, 0xfc, 0xff,
  0xfe, 0x00, 0xfd, 0xfe, 0x09, 0xfc, 0x03, 0xf8, 0x08, 0xfd, 0x03, 0xfb,
  0xf7, 0xee, 0xff, 0x01, 0xd7, 0x00, 0x08, 0xfb, 0x00, 0xfc, 0x09, 0x09,
  0x0a, 0x09, 0x01, 0xfb, 0x0d, 0x05, 0xfe, 0xe9, 0x08, 0xf0, 0xf3, 0x06,
  0xf4, 0x0c, 0xfd, 0xfc, 0x06, 0xfc, 0x08, 0x06, 0xff, 0x03, 0x05, 0x03,
  0xfd, 0xfd, 0xf8, 0x08, 0x07, 0xff, 0x09, 0x07, 0x00, 0x00, 0x06, 0xf4,
  0x00, 0x03, 0xcc, 0x02, 0x0e, 0xf4, 0xfb, 0xfa, 0x08, 0x07, 0x01, 0x04,
  0xef, 0xff, 0x0b, 0x01, 0xed, 0xfa, 0x01, 0xfe, 0x02, 0x00, 0xf9, 0x07,
  0xfd, 0xfe, 0x06, 0xfb, 0xf9, 0xfe, 0x05, 0x0b, 0x05, 0x01, 0xff, 0xff,
  0xf6, 0x09, 0x01, 0xfa, 0xfd, 0x11, 0x09, 0xfd, 0x02, 0xf8, 0x11, 0x02,
  0x13, 0xc9, 0xf3, 0x00, 0xfa, 0xfe, 0x04, 0xfc, 0xfa, 0x00, 0xf8, 0xf4,
  0x06, 0x00, 0x14, 0x0f, 0xff, 0xe3, 0xd3, 0x01, 0xeb, 0xfe, 0x00, 0x03,
  0xfa, 0xfc, 0xf4, 0xfb, 0x00, 0x05, 0xfe, 0x00, 0xf8, 0x02, 0xfb, 0x02,
  0xf6, 0xfc, 0xfb, 0xfc, 0x00, 0xff, 0xf8, 0x07, 0x03, 0xff, 0x28, 0xfc,
  0xfb, 0x00, 0xfc, 0xfe, 0xfa, 0x03, 0x04, 0xfa, 0x05, 0x00, 0xfb, 0xfb,
  0xec, 0x05, 0x04, 0xcb, 0xb3, 0xfc, 0x03, 0xfd, 0x02, 0x04, 0x04, 0xfe,
  0xfd, 0xff, 0x01, 0xf9, 0xfe, 0x08, 0x08, 0xfe, 0x02, 0xfd, 0xf3, 0x05,
  0x02, 0x01, 0x01, 0x05, 0xfd, 0x02, 0x03, 0x06, 0xda, 0xf6, 0x04, 0x01,
  0xf3, 0xf3, 0x03, 0x04, 0x01, 0x03, 0x0a, 0x02, 0x03, 0xfe, 0x06, 0xef,
  0x0a, 0x03, 0x0a, 0xfe, 0xff, 0xff, 0xfc, 0x05, 0x05, 0x02, 0xf3, 0x0b,
  0xff, 0xfb, 0x03, 0xf8, 0xfc, 0xfa, 0xf0, 0xf6, 0xf1, 0xff, 0xe2, 0xff,
  0x01, 0xfd, 0xf7, 0x00, 0x04, 0xd6, 0xf1, 0xfe, 0x00, 0xff, 0xf7, 0xfb,
  0x0a, 0x09, 0x08, 0x0a, 0x0a, 0xef, 0x0b, 0x01, 0x02, 0xf3, 0x07, 0x08,
  0xfc, 0x03, 0xf6, 0x03, 0xfd, 0x00, 0x01, 0x01, 0xfa, 0xfb, 0xfe, 0x09,
  0x05, 0xf7, 0xf9, 0xfe, 0xf3, 0xf4, 0xf7, 0xfa, 0xfd, 0x00, 0x02, 0x02,
  0xf5, 0xf5, 0x02, 0xf9, 0xd9, 0x01, 0xff, 0x03, 0x12, 0x11, 0x03, 0x01,
  0x06, 0x03, 0x03, 0xfc, 0x01, 0xfc, 0xff, 0xfa, 0x05, 0xf9, 0x0f, 0xf8,
  0x02, 0x05, 0xff, 0xfe, 0x04, 0x02, 0xfc, 0x06, 0xfb, 0x04, 0x06, 0xff,
  0xfa, 0x04, 0xfa, 0xfe, 0xfd, 0x00, 0x03, 0x09, 0x0d, 0xfd, 0xff, 0xfa,
  0x07, 0x04, 0xe4, 0xf4, 0xfa, 0x00, 0x04, 0x06, 0x0c, 0x08, 0x06, 0x0b,
  0xfa, 0x08, 0x02, 0x01, 0x02, 0xff, 0xff, 0xfc, 0x14, 0xe4, 0xfe, 0x02,
  0xfb, 0x05, 0x06, 0x05, 0xfd, 0x07, 0x00, 0x02, 0x09, 0x01, 0xfc, 0x02,
  0xff, 0x08, 0xf7, 0xfe, 0xff, 0xfe, 0xfd, 0x02, 0xf6, 0x05, 0x04, 0x01,
  0x06, 0x15, 0xfd, 0x02, 0x0a, 0x05, 0x03, 0xf5, 0x01, 0xf4, 0x02, 0xfc,
  0xf8, 0xfe, 0xed, 0x0b, 0x05, 0xcd, 0xb1, 0x02, 0xec, 0xf8, 0x00, 0xff,
  0xf6, 0xfd, 0xf9, 0x01, 0x00, 0xfb, 0x03, 0x0a, 0x0e, 0x01, 0x02, 0xfd,
  0xfa, 0x00, 0x07, 0x01, 0x01, 0x04, 0xfd, 0x01, 0xfc, 0x08, 0xe7, 0x07,
  0x07, 0xf1, 0x05, 0x07, 0x0b, 0x13, 0x07, 0x03, 0x0f, 0xfe, 0x0c, 0x04,
  0x05, 0xfa, 0x01, 0xfe, 0xfe, 0x03, 0x0c, 0x00, 0xfe, 0x05, 0x0f, 0x00,
  0xfb, 0x07, 0x01, 0x14, 0x08, 0xf7, 0xfe, 0xf5, 0x09, 0xf0, 0x01, 0xef,
  0xfd, 0x04, 0x00, 0xf6, 0x00, 0xfa, 0x04, 0xfc, 0xe8, 0xf5, 0x06, 0xfe,
  0x06, 0xfd, 0x06, 0x07, 0x05, 0xff, 0xf8, 0x00, 0x00, 0xfb, 0xf8, 0x00,
  0x02, 0xfe, 0x0f, 0xe8, 0x00, 0xfd, 0x00, 0x00, 0x01, 0xfe, 0xfe, 0xfc,
  0x04, 0x05, 0x00, 0xff, 0x02, 0x03, 0xf9, 0x0b, 0xf8, 0xfb, 0xfe, 0x06,
  0x0f, 0xf7, 0xf8, 0xfb, 0x0f, 0xfb, 0x8b, 0x1e, 0x01, 0xff, 0xfd, 0xff,
  0x00, 0x0b, 0x08, 0x0b, 0x03, 0xf7, 0xfe, 0xfc, 0xfc, 0xea, 0x04, 0x07,
  0xe9, 0xe2, 0x0a, 0x00, 0x02, 0x03, 0x00, 0x01, 0xf8, 0x09, 0xfb, 0x05,
  0x0c, 0xfb, 0x02, 0x00, 0x02, 0xf5, 0xfe, 0x09, 0x01, 0x00, 0xfe, 0x05,
  0xfd, 0xfb, 0x00, 0xfb, 0xf0, 0x04, 0xfa, 0xfd, 0x05, 0x05, 0x08, 0x0d,
  0x0c, 0x07, 0x05, 0xf3, 0x03, 0x00, 0x02, 0xfa, 0x06, 0x03, 0x02, 0x01,
  0xf6, 0x00, 0xfb, 0x03, 0x0a, 0x05, 0x01, 0xfe, 0x03, 0x05, 0x0a, 0xfc,
  0xfc, 0xfe, 0x06, 0x01, 0xfc, 0xff, 0xfd, 0x02, 0x02, 0xfa, 0x02, 0xf2,
  0x04, 0xf8, 0xe9, 0x07, 0x09, 0xf6, 0xff, 0x00, 0x0c, 0x06, 0x09, 0x0d,
  0x09, 0xf4, 0x04, 0x01, 0xfe, 0xfc, 0x0b, 0xff, 0xfd, 0x00, 0xfb, 0x00,
  0x03, 0xfc, 0x04, 0x03, 0xfe, 0x00, 0x01, 0x08, 0x0c, 0xf8, 0xf9, 0xfb,
  0x08, 0xf8, 0xfc, 0xfe, 0x01, 0xfe, 0xfc, 0xfa, 0xfa, 0xf4, 0x04, 0xfe,
  0xb6, 0x10, 0x20, 0xea, 0x08, 0x04, 0x0a, 0x05, 0x05, 0x01, 0xfe, 0xfa,
  0x03, 0xfc, 0xf0, 0xef, 0x01, 0x02, 0xf6, 0xf6, 0x11, 0x01, 0x00, 0x04,
  0x02, 0x03, 0x02, 0x07, 0xfc, 0x12, 0x04, 0xfb, 0x04, 0x04, 0xfd, 0x02,
  0x02, 0x06, 0xed, 0x02, 0x01, 0x04, 0x01, 0xf7, 0xfd, 0xfc, 0xe1, 0xf0,
  0x0e, 0xfd, 0xfe, 0xff, 0x08, 0x07, 0x05, 0x07, 0x11, 0xf4, 0x08, 0x03,
  0x07, 0xf0, 0x0a, 0x0d, 0x01, 0x13, 0xf9, 0x04, 0x03, 0x03, 0x06, 0x03,
  0xf7, 0xf6, 0xfc, 0x0d, 0x07, 0xfc, 0xff, 0x00, 0xfd, 0x00, 0xff, 0xf9,
  0xfe, 0xff, 0x02, 0xff, 0x05, 0xf8, 0x00, 0x03, 0x17, 0x03, 0xfd, 0xdc,
  0xfe, 0x00, 0x08, 0x03, 0x16, 0xfe, 0xfb, 0x07, 0x03, 0xfb, 0xfb, 0x05,
  0xff, 0xf0, 0x07, 0x1a, 0xe8, 0xfe, 0x03, 0x01, 0x12, 0x03, 0x04, 0xfd,
  0xfb, 0x0e, 0x04, 0xfe, 0xff, 0x04, 0xfe, 0x00, 0xfe, 0x02, 0xfd, 0xfe,
  0x00, 0x07, 0xff, 0xfd, 0x00, 0x02, 0x13, 0x12, 0xfe, 0xf8, 0xf7, 0xf7,
  0x04, 0xf6, 0x12, 0x03, 0x06, 0xfa, 0xfa, 0xff, 0xea, 0xf9, 0xfc, 0xa3,
  0x03, 0x08, 0x0a, 0xf8, 0xfc, 0x01, 0xfc, 0xfc, 0x14, 0x01, 0x01, 0xfb,
  0x01, 0x07, 0x07, 0xff, 0x07, 0xff, 0xf9, 0x03, 0xf2, 0x00, 0xff, 0x03,
  0xfd, 0x00, 0x03, 0xfc, 0xef, 0xfb, 0x09, 0x00, 0x04, 0x00, 0x04, 0x05,
  0x04, 0x01, 0xfa, 0xf4, 0x00, 0xff, 0x0d, 0x07, 0x08, 0xfb, 0x05, 0xff,
  0xfc, 0x01, 0x03, 0x00, 0x04, 0x00, 0xf8, 0x00, 0xff, 0x02, 0x00, 0x02,
  0x01, 0xf3, 0xf2, 0xed, 0xf7, 0xee, 0xec, 0xf9, 0xfe, 0xf3, 0xf3, 0xfc,
  0xf7, 0xf0, 0xdb, 0xe9, 0x04, 0xf8, 0xfc, 0x02, 0x05, 0x06, 0x02, 0xf9,
  0xee, 0x03, 0x0b, 0xfe, 0xff, 0xfc, 0xf6, 0xe2, 0xec, 0xfc, 0xf1, 0x06,
  0xfe, 0x04, 0x04, 0xfe, 0xfe, 0xf9, 0xff, 0xff, 0xff, 0xfe, 0xf6, 0x04,
  0xef, 0x02, 0xfd, 0x01, 0x03, 0x0a, 0x0d, 0xfc, 0xff, 0xfe, 0x0d, 0xfa,
  0xf8, 0xf4, 0x16, 0xf9, 0xfe, 0x03, 0x02, 0x07, 0x06, 0xfe, 0x08, 0x07,
  0x0a, 0x00, 0x0b, 0xfc, 0xfc, 0x04, 0xfe, 0xf9, 0x02, 0xfc, 0xff, 0x00,
  0xfe, 0xfe, 0x09, 0xfc, 0xfe, 0x00, 0xff, 0x02, 0xfe, 0xf5, 0x04, 0xf6,
  0xf9, 0xef, 0xf4, 0x04, 0x08, 0xe8, 0xfd, 0xf1, 0x03, 0xf9, 0x09, 0xfe,
  0x02, 0xed, 0x03, 0x01, 0x0a, 0x14, 0x13, 0x2a, 0x15, 0x09, 0x03, 0xfb,
  0x14, 0x11, 0x01, 0xe3, 0xe7, 0x06, 0xfb, 0x00, 0xff, 0x04, 0xff, 0xfe,
  0xfd, 0x16, 0xfc, 0x04, 0xff, 0xff, 0xfb, 0xfd, 0x00, 0xfe, 0xfc, 0x0a,
  0x01, 0xff, 0xfe, 0x04, 0x00, 0xf7, 0x00, 0x00, 0x1b, 0xf1, 0xfa, 0xf4,
  0x05, 0x00, 0x10, 0x05, 0x0a, 0xfc, 0x1e, 0x02, 0x06, 0x02, 0x0c, 0x10,
  0x00, 0xf1, 0xe3, 0x06, 0x06, 0xff, 0x01, 0x05, 0x02, 0x05, 0xf7, 0x0b,
  0x01, 0x06, 0x10, 0xfa, 0xff, 0x01, 0xfe, 0xfc, 0x01, 0x07, 0x01, 0x00,
  0x04, 0x01, 0xfc, 0xf4, 0xfe, 0x08, 0x0e, 0xe5, 0x01, 0x02, 0x08, 0x03,
  0x0f, 0x0a, 0x1d, 0x1a, 0x09, 0xfb, 0x04, 0xfc, 0x11, 0x04, 0x08, 0x0a,
  0xfd, 0xf9, 0xf1, 0x02, 0xfc, 0xff, 0x06, 0xfe, 0x1b, 0xf6, 0xfb, 0x01,
  0x03, 0x00, 0x00, 0xea, 0x05, 0xda, 0xe9, 0xd1, 0xdb, 0x00, 0x05, 0xd0,
  0x05, 0x04, 0xff, 0xbc, 0x90, 0x0e, 0x1b, 0xee, 0xfe, 0xfe, 0xfb, 0xff,
  0xfb, 0x06, 0xed, 0x03, 0x08, 0x03, 0xf7, 0xf3, 0xff, 0xfb, 0xfe, 0x0a,
  0x02, 0xfb, 0xfb, 0xff, 0xf9, 0xfc, 0x0b, 0xf4, 0xfe, 0xfc, 0x02, 0x04,
  0xfe, 0x01, 0x05, 0xfe, 0xfb, 0x05, 0xe9, 0x00, 0x05, 0x02, 0xfc, 0xfa,
  0x01, 0xfa, 0xe2, 0x19, 0x00, 0xff, 0x02, 0x00, 0x0a, 0xfe, 0xfb, 0x01,
  0x06, 0xf9, 0xfb, 0xfe, 0xfe, 0xf9, 0xfe, 0x8c, 0x00, 0xe5, 0x0b, 0x00,
  0xfd, 0x02, 0xff, 0xff, 0xfb, 0x06, 0xfd, 0x0b, 0x12, 0x02, 0x00, 0xff,
  0x00, 0xff, 0xfd, 0x02, 0x00, 0x01, 0x02, 0x06, 0x02, 0xf7, 0xfe, 0xfc,
  0x04, 0xff, 0x04, 0xfe, 0x11, 0x13, 0x10, 0x0f, 0x0d, 0x05, 0x0d, 0xf4,
  0x0b, 0x03, 0x04, 0xfc, 0x06, 0xfe, 0x02, 0xf8, 0xfd, 0x03, 0x04, 0x03,
  0x0a, 0xff, 0xec, 0x10, 0xff, 0x0c, 0x0f, 0x01, 0xff, 0x01, 0xfd, 0x05,
  0x04, 0xfe, 0xfd, 0xf7, 0x01, 0x08, 0x00, 0xef, 0xff, 0xff, 0xca, 0xf7,
  0xfb, 0x05, 0xfa, 0x01, 0x0b, 0x0b, 0x07, 0x09, 0x0a, 0xf8, 0x07, 0xfe,
  0xf7, 0xf6, 0x0b, 0x08, 0x05, 0x10, 0xfd, 0x03, 0x04, 0xfe, 0x07, 0x00,
  0xf0, 0x09, 0xfd, 0x07, 0x0a, 0xfe, 0xfe, 0xfa, 0xf8, 0xf3, 0xfb, 0xfa,
  0xfa, 0x02, 0xfd, 0xf8, 0xf5, 0xf5, 0xfd, 0xf5, 0xf1, 0x04, 0xff, 0xf5,
  0x04, 0x06, 0x08, 0x08, 0x0e, 0x02, 0x04, 0xf8, 0x04, 0xfe, 0xf7, 0xfa,
  0x05, 0xf6, 0xfd, 0x01, 0xfe, 0x00, 0x01, 0x02, 0x06, 0xfe, 0xfe, 0xfc,
  0xfb, 0x07, 0x05, 0xff, 0xff, 0x03, 0xf6, 0xfd, 0xff, 0xff, 0xff, 0x01,
  0x05, 0xfa, 0xfd, 0xf7, 0x04, 0xfc, 0xee, 0xea, 0x0a, 0xf8, 0x03, 0xff,
  0xfd, 0x02, 0xfe, 0xfa, 0xfb, 0xfc, 0x0d, 0x05, 0x0b, 0x04, 0x09, 0xf5,
  0xf9, 0xf9, 0xfa, 0xfd, 0xfd, 0x00, 0xff, 0xfc, 0x07, 0xfd, 0xfe, 0x02,
  0xfe, 0x04, 0x05, 0xf4, 0x05, 0xff, 0x03, 0xf2, 0x02, 0xf8, 0xf6, 0xeb,
  0xed, 0xf6, 0xf6, 0x04, 0x0b, 0x12, 0xf8, 0x01, 0x01, 0x07, 0x07, 0x0a,
  0x11, 0x07, 0x01, 0xf7, 0x07, 0xfb, 0xf5, 0xff, 0x06, 0xe7, 0xd6, 0x09,
  0xfa, 0x01, 0x04, 0xfb, 0x0b, 0xff, 0xfa, 0xf9, 0x05, 0x06, 0x18, 0x00,
  0xff, 0x03, 0x02, 0xf5, 0xfd, 0xff, 0xff, 0xfd, 0x01, 0x02, 0xfb, 0xf5,
  0xfe, 0x08, 0xf1, 0x03, 0x04, 0xf5, 0x10, 0x11, 0x08, 0x10, 0x14, 0x0f,
  0x0c, 0xf5, 0x0a, 0xfb, 0x16, 0x09, 0xff, 0x00, 0x00, 0x01, 0x02, 0x01,
  0xfe, 0xfc, 0x08, 0xfe, 0x06, 0x06, 0xfc, 0x0f, 0x0a, 0xff, 0xff, 0xfd,
  0x0e, 0xf0, 0xf6, 0xef, 0xf7, 0xff, 0xf8, 0xf4, 0x06, 0xf6, 0xfe, 0xf6,
  0x36, 0xd7, 0x05, 0xfd, 0x03, 0xfc, 0x05, 0x09, 0x0e, 0x09, 0x03, 0xf3,
  0x00, 0xfd, 0xfc, 0x0a, 0x05, 0x04, 0xea, 0x00, 0xf8, 0x04, 0xfd, 0xfd,
  0x02, 0xfc, 0x09, 0xfc, 0x05, 0x0c, 0x02, 0xfa, 0xfc, 0xfd, 0x00, 0xfa,
  0xf8, 0xff, 0x03, 0x00, 0xff, 0xf9, 0x07, 0xfb, 0x03, 0xf4, 0x17, 0xff,
  0xef, 0xfc, 0x08, 0x09, 0x0f, 0x09, 0x0f, 0x06, 0x23, 0x02, 0x0b, 0xfc,
  0x18, 0xf6, 0x02, 0xff, 0xff, 0x01, 0x05, 0x01, 0xfe, 0x04, 0x0c, 0xff,
  0xf8, 0x12, 0x05, 0x09, 0x15, 0xff, 0xff, 0x06, 0x09, 0xf7, 0xf8, 0xf7,
  0x06, 0x02, 0x04, 0xf5, 0x05, 0xf2, 0x07, 0xf8, 0xfe, 0x22, 0x00, 0x05,
  0x00, 0x02, 0x03, 0xf8, 0x0e, 0x09, 0xfb, 0xed, 0xfb, 0xfb, 0xe7, 0x00,
  0x04, 0xdb, 0xd0, 0xeb, 0xef, 0xfd, 0x04, 0xfb, 0xf9, 0x00, 0xfa, 0x03,
  0xfb, 0xfd, 0x0c, 0x04, 0x02, 0x01, 0x02, 0xf7, 0xf7, 0x0c, 0x0a, 0x01,
  0x00, 0x06, 0xfb, 0xfe, 0x00, 0x05, 0xf9, 0xcf, 0xfd, 0xe9, 0x0e, 0x12,
  0x01, 0xff, 0xfa, 0xf4, 0xfa, 0xff, 0x05, 0x01, 0x0d, 0x0a, 0xfc, 0xf0,
  0xe8, 0xf2, 0xfa, 0x01, 0x05, 0x00, 0x02, 0xfc, 0xfd, 0x00, 0xfc, 0x09,
  0x00, 0xfa, 0xf9, 0xf6, 0xea, 0xea, 0xef, 0xf2, 0xe9, 0x02, 0xf6, 0xf1,
  0xf4, 0xff, 0xf6, 0xef, 0xc8, 0xf2, 0xfc, 0xfd, 0x02, 0x03, 0x04, 0x04,
  0x03, 0x04, 0xf6, 0xfb, 0x07, 0x02, 0xf9, 0xfb, 0x06, 0xfe, 0x0f, 0xfe,
  0xfa, 0x01, 0x04, 0x05, 0x02, 0xff, 0xf6, 0x00, 0x05, 0x04, 0x06, 0xfd,
  0xff, 0xff, 0xfb, 0x02, 0xfd, 0xf8, 0x04, 0x01, 0x0d, 0xfa, 0xfd, 0xfa,
  0x07, 0xf7, 0x14, 0xfb, 0x00, 0x06, 0x0c, 0x03, 0xfe, 0x16, 0x24, 0x07,
  0xf7, 0xef, 0x01, 0x05, 0xfc, 0x05, 0x01, 0x02, 0xf6, 0xf7, 0xf2, 0xf8,
  0xff, 0xfb, 0xf9, 0xfe, 0x11, 0x03, 0x03, 0xfb, 0xf9, 0x04, 0x06, 0x00,
  0x00, 0x02, 0xfd, 0x05, 0x05, 0xff, 0x02, 0x02, 0xfd, 0xf7, 0xfe, 0xff,
  0xdb, 0xf9, 0x03, 0xfc, 0xf8, 0xf8, 0x02, 0x05, 0x02, 0xf9, 0xf9, 0x01,
  0x01, 0xfc, 0xfb, 0x01, 0xfb, 0xec, 0x0b, 0xf6, 0xf7, 0xfc, 0x05, 0xfd,
  0x04, 0x00, 0x03, 0x08, 0xfc, 0x06, 0x02, 0xfe, 0x03, 0xf6, 0x05, 0xfe,
  0xff, 0xfb, 0x03, 0xee, 0xf1, 0x00, 0x0c, 0xfa, 0xf6, 0x04, 0xd1, 0xf3,
  0x01, 0xff, 0x06, 0x02, 0x07, 0x07, 0x05, 0xf9, 0xf8, 0x01, 0x03, 0xfe,
  0xf1, 0xfa, 0xfe, 0xf5, 0x0e, 0xf8, 0xfd, 0x03, 0x01, 0xfd, 0x02, 0xfb,
  0xfd, 0x00, 0x04, 0x07, 0x03, 0x00, 0xfe, 0x07, 0xf2, 0x07, 0x04, 0xfc,
  0x01, 0x0b, 0x0f, 0xfd, 0xfa, 0xfb, 0x09, 0x03, 0xcd, 0xf1, 0x10, 0x00,
  0xfd, 0xff, 0x00, 0x02, 0x01, 0x01, 0xfc, 0x01, 0x05, 0x03, 0xf9, 0xfc,
  0x01, 0xec, 0x08, 0xf9, 0xfa, 0xff, 0xfe, 0xff, 0xff, 0x05, 0xff, 0xf8,
  0x04, 0xfc, 0x01, 0xfe, 0xf9, 0xff, 0xf8, 0x06, 0x01, 0x03, 0x00, 0x0c,
  0x0f, 0xfb, 0x03, 0xfd, 0x11, 0x02, 0xe1, 0x0d, 0x00, 0xfe, 0x05, 0x07,
  0x0c, 0x08, 0x0f, 0x0b, 0x0c, 0xf8, 0x08, 0xfe, 0xfc, 0xfc, 0x04, 0x01,
  0x09, 0xf2, 0x0c, 0xff, 0x00, 0x00, 0x0f, 0x00, 0xfb, 0x0d, 0x00, 0x13,
  0x0a, 0x02, 0xfc, 0xfc, 0xff, 0x02, 0xf8, 0x03, 0x07, 0xff, 0xff, 0x02,
  0x01, 0xf9, 0xf6, 0xfa, 0xdb, 0xf3, 0x00, 0xfc, 0x02, 0xfb, 0x06, 0x09,
  0x02, 0xf9, 0xff, 0xfe, 0x03, 0xff, 0xfa, 0xf8, 0xfe, 0xf3, 0x0e, 0xfb,
  0xfb, 0x05, 0x00, 0x00, 0x03, 0x04, 0xfe, 0xff, 0x05, 0x05, 0x02, 0x02,
  0xfe, 0xf8, 0x03, 0x07, 0x03, 0xfe, 0x00, 0xef, 0xf0, 0xff, 0x0b, 0xfb,
  0xf2, 0xfd, 0xde, 0x04, 0xfe, 0xff, 0xf9, 0xf8, 0x06, 0x02, 0xfe, 0xfc,
  0x01, 0xff, 0xfc, 0x02, 0x02, 0xf8, 0x02, 0xfa, 0x06, 0xf6, 0xfb, 0x00,
  0xfc, 0x01, 0x04, 0xfd, 0x02, 0x03, 0x04, 0xfb, 0x04, 0xff, 0x07, 0xf5,
  0xfe, 0x03, 0x02, 0xfe, 0x05, 0xfd, 0xed, 0x00, 0x03, 0x00, 0xee, 0xfe,
  0xf6, 0x0e, 0xfc, 0xf7, 0xfd, 0x01, 0x00, 0xfb, 0x0a, 0xf9, 0xfa, 0xed,
  0x07, 0x04, 0xf3, 0xff, 0x04, 0xd0, 0xdf, 0xf0, 0xf4, 0xfe, 0x04, 0x02,
  0xfa, 0xfc, 0xf1, 0x08, 0xfb, 0xf9, 0x11, 0xfe, 0xfc, 0xfd, 0x05, 0xf9,
  0x06, 0x07, 0x06, 0xfb, 0x04, 0x03, 0xfc, 0xf6, 0xfc, 0x04, 0xfc, 0xfb,
  0xfa, 0xf7, 0x01, 0xfe, 0x07, 0x04, 0x08, 0x06, 0x01, 0xf2, 0x0c, 0xfe,
  0x05, 0xfd, 0x09, 0xf2, 0xf1, 0x01, 0xfd, 0x04, 0xfd, 0xfb, 0x04, 0xfe,
  0xfb, 0xfc, 0x00, 0x09, 0x07, 0xfd, 0x04, 0x04, 0xfd, 0xf3, 0xfd, 0xf8,
  0x03, 0x01, 0xfc, 0xf5, 0xfd, 0xfd, 0x00, 0xfc, 0xfd, 0xff, 0x18, 0xe8,
  0x03, 0x03, 0x03, 0xff, 0x09, 0x03, 0xf6, 0x06, 0xfd, 0x05, 0xfe, 0x1d,
  0xff, 0xf7, 0xff, 0xff, 0x0d, 0x01, 0xfe, 0xfd, 0xfb, 0xfd, 0x08, 0xfb,
  0x05, 0x02, 0xfd, 0x01, 0x04, 0xfa, 0xfd, 0xfc, 0xf7, 0xf7, 0xf2, 0xff,
  0xfd, 0xf6, 0xf6, 0xec, 0xfd, 0xf4, 0xd7, 0xf9, 0x10, 0xfc, 0xfb, 0x01,
  0x04, 0x08, 0x0b, 0x01, 0xf9, 0x05, 0x05, 0xff, 0xf3, 0xf5, 0x01, 0xf2,
  0x06, 0xff, 0xf2, 0xff, 0x02, 0x01, 0x04, 0x00, 0x00, 0xf7, 0x04, 0x05,
  0x00, 0x00, 0xfe, 0x02, 0xf5, 0x0b, 0xfc, 0xfe, 0xfd, 0x0b, 0x13, 0xf9,
  0x03, 0xfa, 0x11, 0x05, 0xe7, 0xfb, 0x04, 0xfb, 0xff, 0x02, 0x04, 0xff,
  0xfc, 0xfa, 0xf3, 0xfa, 0x08, 0x00, 0xf8, 0xfa, 0xfa, 0xee, 0x02, 0xff,
  0xf6, 0x00, 0x02, 0xfb, 0x01, 0xfe, 0xff, 0xff, 0xfe, 0x00, 0xfd, 0x02,
  0x00, 0xef, 0xfa, 0x00, 0x04, 0xfd, 0x04, 0xf4, 0xe5, 0xff, 0x03, 0x01,
  0xe7, 0x00, 0x1e, 0xf6, 0x09, 0x04, 0x03, 0x04, 0x00, 0x0b, 0x02, 0x18,
  0xf6, 0xfe, 0x01, 0x01, 0xde, 0xf6, 0x03, 0xff, 0xd9, 0xf3, 0xea, 0xfd,
  0x03, 0xfd, 0xfd, 0x05, 0x04, 0xf6, 0x03, 0x03, 0x09, 0xff, 0x05, 0x02,
  0x04, 0xf9, 0xf9, 0x00, 0x09, 0x01, 0xfe, 0x01, 0x01, 0xfb, 0xfd, 0xfd,
  0x12, 0x09, 0x02, 0xfe, 0xf7, 0xff, 0xff, 0x04, 0x03, 0x09, 0x0d, 0xf6,
  0xfc, 0xfd, 0xfd, 0x01, 0x09, 0xee, 0xf5, 0x10, 0xe9, 0xfe, 0xfc, 0x00,
  0x02, 0x02, 0x01, 0xf6, 0xfd, 0x00, 0x02, 0x04, 0x04, 0x00, 0xfe, 0xf1,
  0xfe, 0xfe, 0x02, 0x06, 0xfe, 0xfe, 0xfa, 0xf8, 0xfe, 0xff, 0x10, 0xe7,
  0x04, 0x01, 0x03, 0x03, 0x06, 0x09, 0x20, 0x21, 0x09, 0xfd, 0x04, 0x03,
  0xf5, 0x0b, 0x06, 0xeb, 0xdc, 0xff, 0xf7, 0x01, 0x02, 0x04, 0x07, 0xfc,
  0x16, 0xf2, 0x05, 0x04, 0x04, 0xfc, 0x00, 0xf1, 0x00, 0xe2, 0xed, 0xe0,
  0xe6, 0x03, 0xfc, 0xe5, 0x0f, 0x08, 0x04, 0xd2, 0xde, 0x0c, 0x0a, 0xf4,
  0x07, 0x0f, 0x04, 0x05, 0x07, 0xfd, 0xfe, 0xfc, 0xfb, 0x00, 0x12, 0x01,
  0x02, 0x00, 0x00, 0xf0, 0x0e, 0xf7, 0x04, 0x01, 0x03, 0xfc, 0x01, 0x0a,
  0x03, 0x07, 0x02, 0x03, 0xfe, 0xf6, 0x0b, 0xe9, 0xef, 0xe2, 0x01, 0x06,
  0xfe, 0xdd, 0xfa, 0xf7, 0x01, 0xf1, 0x18, 0xed, 0x12, 0xfb, 0x02, 0x03,
  0xfb, 0x01, 0xfa, 0xfc, 0xef, 0x02, 0xfc, 0x01, 0x0c, 0xf5, 0xf9, 0xe1,
  0xca, 0x00, 0x02, 0x01, 0xfb, 0xfb, 0xfd, 0x02, 0xfa, 0xf6, 0xfe, 0xff,
  0x03, 0xfe, 0x04, 0xfc, 0xf7, 0xff, 0xf4, 0x03, 0xf6, 0xf8, 0xf9, 0x03,
  0xfe, 0xf8, 0xfa, 0xf5, 0x03, 0xe2, 0x13, 0x03, 0x04, 0x02, 0x01, 0xfa,
  0x11, 0x1e, 0xfa, 0xff, 0xf9, 0xfe, 0xfb, 0x0f, 0x07, 0xdf, 0xd2, 0x02,
  0xf2, 0xfc, 0xff, 0xfc, 0xf9, 0xfd, 0x17, 0xf7, 0x03, 0xfc, 0x06, 0x08,
  0x01, 0xf9, 0xfa, 0xfc, 0xf8, 0xff, 0x05, 0x00, 0xff, 0x02, 0x01, 0x01,
  0x01, 0xf6, 0x64, 0xe7, 0x00, 0x00, 0xff, 0xfe, 0xfd, 0x01, 0x03, 0x0f,
  0xfe, 0xfe, 0x00, 0x03, 0x00, 0x15, 0x04, 0x06, 0xf1, 0x0c, 0x00, 0x02,
  0x04, 0xfd, 0xff, 0x01, 0x07, 0xf6, 0xfe, 0xff, 0x06, 0xf9, 0xff, 0xff,
  0xff, 0xfe, 0xf8, 0xff, 0xfd, 0x02, 0xfe, 0x02, 0x02, 0x03, 0x00, 0xf7,
  0x03, 0x15, 0xf3, 0xfb, 0xff, 0xfe, 0x06, 0x03, 0x0b, 0x05, 0x07, 0xfc,
  0x0a, 0x03, 0xfe, 0xfd, 0x02, 0xbd, 0xf9, 0xf5, 0x12, 0x02, 0x02, 0xfc,
  0x0d, 0xfc, 0xf8, 0x06, 0x00, 0x06, 0x13, 0xfb, 0xff, 0xfa, 0x01, 0xf9,
  0xfb, 0x05, 0xfe, 0x04, 0x01, 0x03, 0xfc, 0xf5, 0x00, 0xfb, 0xe0, 0xf6,
  0xfa, 0xff, 0x11, 0x08, 0x07, 0x07, 0x09, 0x05, 0xfc, 0xff, 0x08, 0xfd,
  0x01, 0xfd, 0x0e, 0xfa, 0x13, 0xe8, 0x05, 0xff, 0x00, 0x01, 0x03, 0xfd,
  0xf6, 0x04, 0x03, 0x0a, 0x07, 0x00, 0x01, 0xff, 0xf6, 0x02, 0xfc, 0xfa,
  0x07, 0xfe, 0xff, 0xfb, 0x05, 0x06, 0xfd, 0x01, 0xe7, 0x14, 0x03, 0xf7,
  0xf8, 0xfc, 0xf4, 0xfa, 0xfe, 0x0b, 0xf3, 0x07, 0xfa, 0x01, 0x01, 0xfa,
  0x00, 0x84, 0x05, 0x01, 0xfd, 0xf1, 0x01, 0x01, 0x05, 0xfb, 0x09, 0x04,
  0x04, 0xf9, 0xfc, 0x09, 0x0a, 0x00, 0x02, 0xfe, 0xfc, 0x00, 0xf7, 0x02,
  0xfa, 0x08, 0x00, 0x00, 0x02, 0xfe, 0xde, 0xf8, 0x00, 0xfe, 0xf7, 0xf3,
  0x09, 0x07, 0x06, 0xfd, 0xf9, 0xfe, 0x06, 0xfe, 0xf1, 0xfd, 0xfd, 0xe9,
  0x0b, 0xf8, 0xf6, 0xfc, 0x04, 0xfd, 0x02, 0xfd, 0xfe, 0x01, 0x01, 0x08,
  0x02, 0x03, 0x01, 0xf4, 0xfd, 0x08, 0x06, 0xfe, 0xfe, 0xf7, 0xf0, 0x02,
  0x01, 0xfe, 0xf0, 0x05, 0xd2, 0x0d, 0x1a, 0xdd, 0xff, 0xfe, 0x08, 0x03,
  0x0f, 0x00, 0xf0, 0xff, 0x05, 0xfc, 0x06, 0x08, 0xfa, 0x01, 0xf7, 0x06,
  0x04, 0x00, 0x03, 0xff, 0xfe, 0x03, 0x07, 0x0d, 0x04, 0x07, 0x09, 0xfd,
  0xfe, 0x0b, 0xf8, 0xf9, 0x02, 0x06, 0xe8, 0xfd, 0xfc, 0x07, 0x00, 0x03,
  0x06, 0x07, 0x24, 0xd7, 0x01, 0x04, 0x0d, 0x07, 0x09, 0x0a, 0x09, 0x15,
  0x05, 0xf9, 0x07, 0x03, 0x17, 0x01, 0x0a, 0x08, 0xfd, 0xff, 0xf7, 0x01,
  0x01, 0xfe, 0x10, 0xfb, 0x07, 0xf2, 0xfd, 0x12, 0x14, 0x01, 0xfd, 0xee,
  0x08, 0xe3, 0xed, 0xe1, 0xd7, 0xfe, 0x02, 0xe2, 0x08, 0xf9, 0xfe, 0xdb,
  0x0f, 0xf0, 0x00, 0x03, 0x08, 0x09, 0x0b, 0x08, 0x20, 0x15, 0x07, 0xf9,
  0x0b, 0x05, 0xf6, 0x0b, 0x09, 0xfe, 0xf5, 0x0d, 0xf8, 0x00, 0xfc, 0xfd,
  0x06, 0x04, 0x18, 0xf6, 0x03, 0x0b, 0x0e, 0x00, 0xfa, 0xf1, 0x03, 0x02,
  0xf9, 0xf9, 0xec, 0xff, 0xff, 0xfa, 0x0c, 0x05, 0xfe, 0xe1, 0x5c, 0xe2,
  0xff, 0x03, 0xf6, 0xf0, 0x06, 0xfa, 0x09, 0x03, 0xfb, 0xf7, 0xfb, 0x05,
  0xe7, 0x0c, 0x05, 0x07, 0xd3, 0x03, 0x01, 0xfb, 0x01, 0x03, 0xfa, 0x05,
  0x03, 0xf1, 0xfb, 0xfc, 0x08, 0x04, 0x05, 0x01, 0xfe, 0xfe, 0xfc, 0x07,
  0x02, 0x01, 0xff, 0x03, 0x03, 0x04, 0x03, 0x04, 0x10, 0x1b, 0xf8, 0x01,
  0x04, 0xfb, 0xfc, 0xfc, 0x07, 0x03, 0x07, 0xf7, 0x01, 0x01, 0xfb, 0xf2,
  0xfe, 0x07, 0xf0, 0xdd, 0x01, 0xfe, 0xfc, 0xfc, 0x0a, 0xff, 0xff, 0x02,
  0xff, 0x03, 0x0f, 0xff, 0x00, 0x03, 0x02, 0xf8, 0xfd, 0x07, 0x06, 0x01,
  0xfd, 0x07, 0xfa, 0xf8, 0x01, 0xfe, 0xae, 0xe0, 0xfa, 0xff, 0x01, 0x07,
  0x07, 0x0c, 0x01, 0x00, 0x0c, 0x08, 0x03, 0x05, 0xff, 0xee, 0x04, 0x08,
  0x0b, 0xf9, 0x00, 0xfe, 0xfe, 0x02, 0x05, 0xfc, 0xf6, 0x09, 0x02, 0x01,
  0x03, 0xff, 0xff, 0xfc, 0xf4, 0x05, 0xfa, 0xfd, 0xf6, 0x04, 0x01, 0x00,
  0x0a, 0x02, 0x02, 0xfb, 0x13, 0xf3, 0x03, 0xfa, 0x07, 0x03, 0x10, 0x0c,
  0x13, 0x11, 0x0e, 0x01, 0x09, 0xfc, 0x0b, 0x08, 0x08, 0xf5, 0xf5, 0x05,
  0xfc, 0x01, 0x04, 0xfc, 0x09, 0x04, 0x03, 0x02, 0x04, 0x06, 0x0a, 0xfd,
  0xfc, 0x04, 0x05, 0x03, 0xff, 0x00, 0xfd, 0xfe, 0x01, 0xf8, 0x02, 0xf5,
  0xfd, 0xf6, 0xf8, 0x27, 0x07, 0xff, 0xfa, 0xfb, 0xfe, 0xf9, 0x10, 0xf8,
  0xf4, 0xec, 0xfa, 0x04, 0xee, 0xfe, 0xfb, 0xce, 0xcc, 0xef, 0xfe, 0xf8,
  0xff, 0xfb, 0x05, 0xfe, 0x0a, 0x02, 0xfd, 0xf9, 0xf4, 0x0c, 0x0a, 0xfe,
  0x04, 0xfa, 0xfd, 0x0a, 0x07, 0xfe, 0xfe, 0x02, 0xfb, 0x00, 0x00, 0x02,
  0xf3, 0xfc, 0x01, 0x05, 0xfb, 0xf3, 0x04, 0x0a, 0x01, 0x08, 0x01, 0xf2,
  0x05, 0x03, 0x03, 0x05, 0x05, 0x00, 0x0f, 0x07, 0x01, 0x02, 0xfc, 0x05,
  0x05, 0x00, 0xf5, 0x01, 0xfb, 0x06, 0x08, 0xf7, 0xf8, 0xfd, 0xf7, 0xf5,
  0xfc, 0xf9, 0xfd, 0xfb, 0xfd, 0xf9, 0xf5, 0xf9, 0x00, 0xf7, 0xbd, 0x0d,
  0x05, 0x06, 0xfe, 0xfb, 0x0b, 0x08, 0x0d, 0x0f, 0x12, 0xf0, 0x02, 0x00,
  0xfd, 0xee, 0x08, 0x09, 0xf6, 0xf1, 0xf2, 0xff, 0xfc, 0x00, 0x0a, 0x05,
  0xf8, 0x14, 0xff, 0x09, 0x0a, 0xf8, 0xf3, 0x08, 0xff, 0xf6, 0x0a, 0x00,
  0x0f, 0x05, 0xfc, 0x05, 0xfe, 0xf1, 0x01, 0x03, 0x01, 0xea, 0xf6, 0xf9,
  0xf7, 0xf6, 0x03, 0x06, 0xfe, 0x00, 0x03, 0xfb, 0x07, 0x02, 0x0a, 0x07,
  0x0a, 0xf6, 0xe8, 0xfc, 0xf5, 0x00, 0x04, 0xfe, 0x01, 0x05, 0x08, 0xf1,
  0xfc, 0xfd, 0x01, 0xf6, 0xf5, 0x01, 0x00, 0xfc, 0xfe, 0xfa, 0xf6, 0x04,
  0x01, 0xf5, 0xf2, 0xfd, 0x07, 0xfd, 0xea, 0x0c, 0xfe, 0xee, 0x0e, 0x13,
  0x11, 0x0f, 0x0d, 0x0e, 0x13, 0x01, 0x03, 0xfe, 0x14, 0xfb, 0x00, 0xfc,
  0x05, 0xfd, 0x0a, 0x01, 0x03, 0x03, 0x05, 0x05, 0xf3, 0x1c, 0x00, 0x03,
  0x11, 0xfd, 0xfe, 0xf4, 0x0a, 0xf2, 0xf9, 0xf1, 0xff, 0xfd, 0x01, 0xf3,
  0x04, 0xed, 0xff, 0xf4, 0x25, 0x0f, 0x0b, 0xf8, 0x09, 0x00, 0x0b, 0x08,
  0x16, 0x15, 0x01, 0xff, 0xfe, 0x02, 0xfc, 0xfc, 0x01, 0xcf, 0xf7, 0xfd,
  0x08, 0x00, 0x03, 0x00, 0x00, 0xfb, 0x08, 0x03, 0x00, 0x02, 0x06, 0x01,
  0xfd, 0xff, 0x06, 0xfb, 0x03, 0x01, 0xf1, 0xfe, 0x02, 0x08, 0x03, 0xfe,
  0x00, 0x04, 0xf9, 0xed, 0x06, 0xfd, 0x03, 0xff, 0x0c, 0x09, 0x01, 0xfb,
  0x07, 0xff, 0xff, 0x03, 0xf6, 0xfb, 0xff, 0xf8, 0xf8, 0x09, 0xf4, 0x05,
  0xfb, 0xfc, 0x02, 0xfe, 0x05, 0xf6, 0xfd, 0xff, 0x01, 0xfe, 0xfa, 0xff,
  0xfb, 0xfc, 0xfc, 0xfc, 0xf8, 0x00, 0xff, 0xfd, 0xff, 0xf7, 0x01, 0xfa,
  0x1c, 0x04, 0xe6, 0x05, 0x0c, 0x05, 0x13, 0x0d, 0x0e, 0x08, 0x17, 0xf8,
  0x0a, 0x00, 0xff, 0xfb, 0x02, 0xfd, 0x07, 0x0a, 0xfb, 0x00, 0x04, 0x00,
  0x09, 0xff, 0xf7, 0x12, 0xff, 0x13, 0x10, 0xfa, 0x01, 0x05, 0x07, 0xf8,
  0xff, 0xef, 0x01, 0xfe, 0xff, 0xf5, 0xfd, 0xe9, 0x05, 0x02, 0x20, 0xed,
  0xfb, 0x08, 0xfb, 0x02, 0x08, 0x08, 0x07, 0x12, 0x05, 0xf0, 0xfd, 0x05,
  0xfc, 0xff, 0x02, 0xea, 0xdc, 0x07, 0xed, 0x01, 0xfd, 0x02, 0x06, 0xfc,
  0xfb, 0x00, 0x02, 0xfe, 0x0b, 0x01, 0x02, 0x00, 0xf6, 0xfb, 0xf8, 0x03,
  0x06, 0x02, 0xfe, 0xfd, 0xfd, 0x00, 0xfe, 0xfe, 0x12, 0xf1, 0xf6, 0x03,
  0x05, 0x07, 0x01, 0x10, 0x07, 0x0c, 0x03, 0xf9, 0x03, 0x05, 0xfd, 0x06,
  0x01, 0xe8, 0xe4, 0xf7, 0xf7, 0x00, 0xff, 0x02, 0x02, 0x02, 0xf4, 0x04,
  0xfe, 0x05, 0x0c, 0x02, 0xfe, 0x04, 0x06, 0xfa, 0x05, 0xed, 0x00, 0x01,
  0x01, 0xea, 0xfb, 0xec, 0x03, 0x00, 0x0c, 0x06, 0x17, 0xe4, 0x04, 0x04,
  0xff, 0xff, 0xfd, 0xfe, 0xf0, 0xfe, 0xf4, 0xfe, 0x08, 0x18, 0x08, 0x02,
  0xfb, 0x06, 0x0b, 0xf8, 0x02, 0xfb, 0xfb, 0x05, 0x01, 0xec, 0xfd, 0xf8,
  0xff, 0x09, 0x0c, 0xea, 0xfe, 0x01, 0xfb, 0xff, 0xee, 0x04, 0xfb, 0x04,
  0xff, 0xf7, 0xfb, 0x00, 0xe8, 0xef, 0xfa, 0xfc, 0xfd, 0xf8, 0x0b, 0x09,
  0x06, 0x07, 0x12, 0xf3, 0x0c, 0xff, 0xfc, 0xf1, 0x04, 0x07, 0x05, 0xfc,
  0xfc, 0x04, 0x04, 0x01, 0x08, 0xfe, 0xf9, 0xff, 0x00, 0x11, 0x03, 0xfb,
  0xfc, 0x04, 0xfc, 0x0e, 0x01, 0x00, 0xfe, 0xfe, 0xff, 0x03, 0x0b, 0xfc,
  0x02, 0xfc, 0xe5, 0x03, 0xfe, 0xd6, 0x05, 0x02, 0xfa, 0xf5, 0x05, 0xf7,
  0x00, 0xf7, 0xfd, 0xfe, 0xf5, 0xf4, 0xfd, 0xa7, 0x05, 0x07, 0x09, 0xfd,
  0x01, 0x05, 0xf7, 0xfd, 0xf8, 0x08, 0xfe, 0xfc, 0x11, 0x07, 0x0a, 0xf9,
  0x02, 0x01, 0xf9, 0x00, 0xfa, 0x02, 0xfc, 0x02, 0xfe, 0xf6, 0x00, 0x03,
  0x5a, 0xcf, 0x01, 0x06, 0xfc, 0xfb, 0xfc, 0x05, 0x01, 0xfe, 0x02, 0xff,
  0x05, 0xff, 0xf7, 0xfd, 0xfa, 0xf3, 0xb3, 0xf6, 0x00, 0x01, 0xfc, 0xfd,
  0x05, 0x05, 0xfe, 0xfd, 0x05, 0x07, 0xfb, 0xfd, 0x03, 0xfd, 0x05, 0xfd,
  0xfb, 0x04, 0x05, 0x00, 0x01, 0x03, 0xff, 0x04, 0x03, 0x03, 0xe3, 0xe9,
  0x02, 0xfc, 0x0b, 0x0e, 0x01, 0x04, 0x06, 0xf9, 0xed, 0xfc, 0xff, 0x03,
  0xf9, 0x00, 0xfe, 0xef, 0xf6, 0x10, 0xfa, 0x03, 0x04, 0x02, 0xfb, 0x04,
  0x07, 0xfc, 0xff, 0xfe, 0xfb, 0xfb, 0x01, 0xfb, 0xfc, 0x00, 0xfe, 0xfd,
  0xfa, 0xff, 0x01, 0x01, 0xff, 0xf4, 0x00, 0xfd, 0xfd, 0xff, 0x03, 0xf8,
  0x02, 0xfe, 0x08, 0x02, 0x0f, 0x0e, 0xfc, 0xf3, 0x05, 0xfb, 0xfc, 0x00,
  0x0b, 0xf7, 0x06, 0x02, 0xe8, 0xfe, 0x01, 0x01, 0x02, 0x02, 0xf5, 0x04,
  0xfd, 0x01, 0x03, 0xff, 0xf6, 0xfd, 0x00, 0x10, 0x00, 0x06, 0x04, 0xfe,
  0x02, 0x00, 0x07, 0xef, 0xfd, 0xff, 0xde, 0xf1, 0x03, 0xf3, 0xff, 0xfd,
  0x0b, 0x0b, 0x00, 0x06, 0x02, 0xf9, 0x0d, 0x00, 0x01, 0xf1, 0x09, 0x04,
  0x04, 0x04, 0xfa, 0x00, 0x04, 0xfc, 0x04, 0xff, 0xf7, 0xfd, 0x02, 0x03,
  0x08, 0xfb, 0xfc, 0xef, 0x00, 0x01, 0xfa, 0xf3, 0xfd, 0x00, 0x05, 0xf5,
  0xff, 0xf8, 0x05, 0xed, 0xb4, 0x12, 0x0c, 0xf9, 0x0a, 0x02, 0x08, 0x00,
  0xff, 0xfb, 0x05, 0x01, 0x0a, 0xfe, 0xfd, 0xeb, 0xfd, 0x03, 0xf5, 0xef,
  0x0d, 0xfd, 0x01, 0xfc, 0xfc, 0xfc, 0xf6, 0x14, 0x03, 0xfd, 0x0d, 0x04,
  0xfe, 0xfd, 0x02, 0x00, 0xf8, 0x08, 0xff, 0x04, 0xff, 0x03, 0x00, 0xf0,
  0x00, 0xf9, 0xda, 0xfa, 0x00, 0xfd, 0x0c, 0x15, 0x04, 0x03, 0x02, 0x00,
  0x01, 0xfa, 0x00, 0x01, 0xfb, 0x07, 0x01, 0xf5, 0x14, 0xee, 0x04, 0xfe,
  0x04, 0x02, 0x05, 0x02, 0xfb, 0xfe, 0x00, 0x05, 0x04, 0xfb, 0x00, 0x05,
  0xf9, 0x10, 0xfe, 0xfb, 0xf6, 0x08, 0xff, 0x03, 0x01, 0xf8, 0x07, 0x00,
  0xef, 0xef, 0x01, 0xfe, 0xfe, 0x04, 0x0a, 0x09, 0x01, 0x02, 0x00, 0xf1,
  0x0d, 0x00, 0xfe, 0x00, 0x06, 0xe1, 0xf6, 0x00, 0xfd, 0xff, 0xfd, 0x03,
  0x06, 0x02, 0x03, 0xfe, 0x03, 0x06, 0x04, 0xfc, 0x01, 0xf1, 0xfa, 0xfb,
  0xfe, 0xf8, 0xf7, 0xfa, 0xf5, 0xf6, 0xfd, 0xf8, 0xee, 0xfb, 0xdc, 0xfd,
  0xfe, 0xff, 0xfc, 0xf4, 0x06, 0x0d, 0x07, 0xfe, 0xfc, 0xff, 0x04, 0xfc,
  0xf6, 0xfc, 0xfe, 0xfb, 0x14, 0xf1, 0xf6, 0x04, 0xff, 0x04, 0x04, 0x00,
  0x01, 0xfe, 0x00, 0x01, 0x06, 0xff, 0x02, 0xf2, 0xfd, 0xf6, 0xf8, 0xfa,
  0xfd, 0xf8, 0xf7, 0xf5, 0xf8, 0xfc, 0xfc, 0x00, 0xca, 0xef, 0x00, 0x07,
  0x07, 0x09, 0x03, 0x0a, 0x05, 0x01, 0x0d, 0x01, 0x01, 0xfb, 0x00, 0xf6,
  0xfd, 0x09, 0x05, 0x0b, 0x05, 0x00, 0xfc, 0xff, 0x01, 0x04, 0xf7, 0x00,
  0xff, 0xff, 0x03, 0xff, 0xfa, 0xf2, 0xf5, 0xef, 0xfd, 0xf8, 0xf8, 0xff,
  0x04, 0xf7, 0xea, 0xff, 0xfd, 0xf9, 0xf9, 0x03, 0x09, 0xfa, 0xf2, 0xeb,
  0xfb, 0xf1, 0xfe, 0xf4, 0xee, 0x09, 0xf4, 0xfe, 0x0a, 0xf9, 0x04, 0xea,
  0xf2, 0x22, 0xfa, 0x08, 0xfe, 0xfb, 0xee, 0x05, 0x08, 0xef, 0x03, 0xee,
  0xf5, 0x10, 0x0c, 0xff, 0xfe, 0xf9, 0xfe, 0x08, 0xf9, 0x03, 0x03, 0x06,
  0x06, 0x08, 0x02, 0xfc, 0x1c, 0xe8, 0x07, 0x02, 0x02, 0xfc, 0xf9, 0x0a,
  0x1b, 0x1e, 0x02, 0xf4, 0xfb, 0x02, 0xfe, 0x0c, 0x04, 0x05, 0xff, 0x03,
  0xf5, 0xfc, 0x02, 0x05, 0xfe, 0xfe, 0x17, 0xf0, 0x00, 0xfc, 0xfe, 0xfc,
  0x03, 0xf3, 0x02, 0xfb, 0xf9, 0xf8, 0xea, 0x00, 0xfb, 0xfd, 0x0f, 0x05,
  0x02, 0xe1, 0xec, 0x0c, 0x03, 0xfe, 0x02, 0xfe, 0x03, 0x03, 0xfe, 0xfd,
  0xf8, 0xfb, 0x09, 0x02, 0xf4, 0x06, 0x07, 0x01, 0x01, 0x14, 0xde, 0x08,
  0xfb, 0xfd, 0x02, 0x04, 0xfb, 0xf4, 0xfe, 0x06, 0xfe, 0xfb, 0xf7, 0xf9,
  0xfb, 0xfb, 0xf6, 0x00, 0xf7, 0x02, 0x04, 0xff, 0xf1, 0xe9, 0xff, 0xfb,
  0x08, 0x00, 0xfb, 0xfc, 0x0b, 0x03, 0x0e, 0x0b, 0x0c, 0x0c, 0x02, 0xf6,
  0x06, 0x01, 0x07, 0x10, 0x06, 0xf4, 0x0e, 0xf9, 0xfe, 0x01, 0x02, 0x00,
  0x06, 0x04, 0xf0, 0x0c, 0xfc, 0x09, 0x0c, 0xfc, 0xfe, 0xfe, 0x04, 0x03,
  0xfe, 0xfd, 0x02, 0x0d, 0x02, 0xfe, 0x01, 0xfc, 0xfe, 0xfc, 0xe8, 0xff,
  0xfc, 0x02, 0xfb, 0x01, 0x04, 0x03, 0x06, 0x0b, 0xf5, 0xfc, 0x03, 0x00,
  0x05, 0x0a, 0x02, 0xed, 0x0d, 0xfc, 0x02, 0x00, 0xfe, 0xff, 0xfd, 0x05,
  0x03, 0xf9, 0xff, 0xfd, 0x03, 0xfe, 0x01, 0x01, 0xfd, 0xfc, 0xfe, 0xff,
  0x02, 0x01, 0x04, 0xfe, 0xfd, 0xfa, 0x02, 0x03, 0x0f, 0x0e, 0x04, 0x03,
  0xfb, 0x02, 0xf4, 0xf8, 0x14, 0xf7, 0xf4, 0xee, 0xf9, 0xfd, 0xdc, 0xfc,
  0x02, 0x0e, 0xee, 0xec, 0xf3, 0xfa, 0xfb, 0x04, 0xf8, 0xfc, 0x05, 0xfb,
  0xfe, 0xf4, 0x0a, 0xfc, 0xff, 0x00, 0x04, 0xf9, 0x00, 0x04, 0x05, 0x00,
  0xff, 0x04, 0xf4, 0xfe, 0xfe, 0x03, 0xb3, 0x0b, 0x16, 0xe0, 0x08, 0x0a,
  0x10, 0x07, 0x09, 0x10, 0x0b, 0xfd, 0x04, 0x02, 0x04, 0xe2, 0x03, 0x04,
  0xf4, 0xf4, 0x08, 0x01, 0x04, 0x04, 0x04, 0x04, 0xf8, 0x11, 0xfb, 0x05,
  0x10, 0x01, 0xff, 0x05, 0x02, 0xf8, 0xfe, 0x03, 0xfa, 0xff, 0xfb, 0x08,
  0x01, 0xf1, 0xff, 0xf9, 0xaf, 0x0b, 0x0d, 0x03, 0xfe, 0xfc, 0x04, 0x05,
  0x08, 0x01, 0x0b, 0xfd, 0x07, 0x03, 0xf6, 0xd1, 0x06, 0x07, 0xf5, 0xf6,
  0x07, 0xff, 0x02, 0x02, 0x07, 0x03, 0x08, 0x00, 0x00, 0x08, 0x06, 0xf9,
  0xfa, 0x05, 0x06, 0xff, 0x02, 0x00, 0x07, 0x0d, 0xff, 0x08, 0x03, 0xf2,
  0xfe, 0xfa, 0xf6, 0xee, 0xfc, 0xfe, 0x01, 0x04, 0x0f, 0x18, 0x1b, 0x16,
  0x0e, 0xfe, 0x0e, 0x05, 0x07, 0x08, 0x02, 0xe6, 0xed, 0x03, 0xed, 0x02,
  0xff, 0x04, 0x0f, 0x04, 0xf6, 0xf7, 0x01, 0x04, 0x1f, 0x02, 0xff, 0x02,
  0x03, 0xfe, 0x00, 0x03, 0x00, 0x00, 0x01, 0x03, 0x01, 0x02, 0xfe, 0x00,
  0xfc, 0x00, 0x0d, 0xe5, 0x09, 0x05, 0x03, 0x06, 0x0d, 0x04, 0x11, 0x01,
  0x0d, 0x02, 0xfc, 0xf2, 0x01, 0xfa, 0x02, 0x0b, 0x0b, 0x01, 0xfb, 0x04,
  0x02, 0xfd, 0xfb, 0x12, 0xfc, 0x04, 0x0c, 0x02, 0xff, 0xf4, 0x04, 0xf9,
  0xf7, 0x00, 0x02, 0x00, 0xfe, 0x06, 0x05, 0xf3, 0x08, 0xf9, 0x7f, 0xec,
  0x04, 0x00, 0xf5, 0xf9, 0xf8, 0x03, 0xfe, 0xfd, 0xf6, 0x01, 0xfc, 0x05,
  0xfd, 0x15, 0xfc, 0x02, 0xde, 0x04, 0x01, 0x05, 0xfc, 0xfb, 0xfc, 0xfc,
  0xff, 0xf1, 0x05, 0x04, 0xf9, 0xf6, 0xf4, 0x02, 0x03, 0x04, 0xfd, 0xfb,
  0x00, 0x01, 0x00, 0x04, 0x00, 0x02, 0xfc, 0xff, 0xf2, 0x0c, 0xfa, 0xee,
  0x07, 0x00, 0x05, 0x05, 0x1e, 0xfd, 0x0a, 0xf8, 0x0d, 0x02, 0xf5, 0x03,
  0x00, 0x03, 0x01, 0xf2, 0x05, 0x00, 0x05, 0x00, 0x0e, 0x02, 0xfc, 0x04,
  0x00, 0x06, 0x15, 0xff, 0x02, 0xfc, 0x05, 0xfd, 0xf7, 0xfc, 0xfd, 0xfc,
  0xf8, 0xfd, 0x08, 0xee, 0xfe, 0xf6, 0xe5, 0x05, 0x00, 0xf3, 0xf9, 0xfc,
  0x0f, 0x0f, 0x0c, 0x07, 0x02, 0xfc, 0x0b, 0xfc, 0x04, 0xfd, 0x02, 0xec,
  0xf3, 0x04, 0xf3, 0x01, 0x03, 0x00, 0x0c, 0x03, 0x02, 0x02, 0xfb, 0x0e,
  0x07, 0x02, 0xfa, 0x04, 0xfb, 0xfb, 0x02, 0xfc, 0xfe, 0xfe, 0x06, 0xfc,
  0x06, 0xf5, 0x07, 0xfe, 0x2b, 0xf7, 0xfc, 0xfd, 0x15, 0x13, 0x19, 0x1e,
  0x36, 0x2f, 0x20, 0x03, 0x0e, 0xfb, 0x0f, 0x11, 0x00, 0xfb, 0xf9, 0x0b,
  0x04, 0x01, 0x02, 0x00, 0x17, 0x00, 0xff, 0x09, 0x00, 0x0d, 0x16, 0xfd,
  0x00, 0xfb, 0x02, 0x03, 0x04, 0x00, 0xf8, 0x06, 0x00, 0xfb, 0xfe, 0xf4,
  0x01, 0xf7, 0xfc, 0x00, 0xfb, 0xfe, 0x02, 0xfd, 0x10, 0x10, 0x0c, 0x0b,
  0x13, 0xff, 0x04, 0x00, 0x08, 0x07, 0x06, 0xfe, 0x14, 0xf6, 0x05, 0xff,
  0x02, 0xff, 0x11, 0x00, 0xfc, 0x0e, 0x01, 0x10, 0x13, 0x01, 0x00, 0xfd,
  0x01, 0xfe, 0xfb, 0xff, 0x09, 0xfd, 0xfe, 0x03, 0x06, 0xfb, 0xf6, 0xfd,
  0xff, 0x19, 0xff, 0x06, 0x00, 0x05, 0x0f, 0x11, 0x0b, 0x0d, 0x0b, 0xf4,
  0x0d, 0x03, 0x09, 0xf6, 0x05, 0x09, 0xf1, 0xe2, 0xff, 0x02, 0x04, 0x00,
  0x0f, 0x04, 0xf9, 0x0a, 0x01, 0x0e, 0x1b, 0x00, 0xff, 0x02, 0xfb, 0xfa,
  0x04, 0x01, 0x06, 0x02, 0xfe, 0x05, 0xfa, 0xf8, 0x02, 0x06, 0x60, 0x1b,
  0xfe, 0xfd, 0x04, 0x04, 0x01, 0x02, 0x05, 0x03, 0x03, 0xf8, 0xff, 0xff,
  0xec, 0xff, 0x05, 0x09, 0xe9, 0xf0, 0x03, 0xfe, 0x03, 0xff, 0xff, 0x02,
  0x04, 0xfd, 0x05, 0x06, 0x02, 0xfd, 0xfc, 0x05, 0xff, 0xf7, 0x04, 0x05,
  0xff, 0xff, 0xfe, 0x02, 0x04, 0x01, 0x03, 0xff, 0xe8, 0xfd, 0x06, 0xfc,
  0x03, 0x09, 0x11, 0x0b, 0x09, 0x08, 0x09, 0xf9, 0x04, 0xfc, 0xff, 0xf3,
  0x05, 0x07, 0xfe, 0x05, 0xee, 0x00, 0x02, 0x03, 0x0a, 0xff, 0xfc, 0xfa,
  0xff, 0x0c, 0x07, 0x02, 0x00, 0x02, 0xfd, 0xfc, 0xfc, 0xfd, 0xfc, 0x09,
  0xff, 0xff, 0x05, 0xf2, 0x03, 0xfe, 0xf0, 0xed, 0x0b, 0xf8, 0x07, 0x08,
  0x06, 0x08, 0x0c, 0x0c, 0x0f, 0xfb, 0x03, 0xfc, 0xfd, 0xf4, 0x09, 0x0e,
  0x00, 0x0c, 0xf5, 0x02, 0x03, 0x01, 0x05, 0xfe, 0xf9, 0xfd, 0x04, 0x0a,
  0x03, 0x00, 0xfc, 0xf9, 0x01, 0x07, 0x01, 0xf7, 0xfa, 0x04, 0x00, 0xf8,
  0x07, 0xf3, 0xfc, 0xff, 0xf2, 0x02, 0xff, 0x03, 0x05, 0x04, 0x05, 0x0a,
  0x07, 0x0b, 0x01, 0xfe, 0x0d, 0x03, 0xf1, 0x00, 0x04, 0xfb, 0x0c, 0xfa,
  0xfe, 0x03, 0x05, 0x00, 0x0f, 0xfb, 0xf5, 0x04, 0x00, 0x06, 0x07, 0xfe,
  0xfd, 0xfe, 0xfa, 0x01, 0xfd, 0xfb, 0x06, 0x00, 0x07, 0xf8, 0xf4, 0xfd,
  0x09, 0xfc, 0x58, 0x19, 0xfb, 0x03, 0xff, 0x05, 0xfc, 0x03, 0x06, 0x10,
  0x01, 0xf7, 0xfb, 0xfd, 0xfd, 0xf1, 0x04, 0x0b, 0xe8, 0xdf, 0x00, 0xfe,
  0x01, 0xfd, 0xf9, 0x03, 0x00, 0xfd, 0xfc, 0x00, 0x03, 0x07, 0x06, 0x04,
  0xfe, 0xfa, 0x04, 0x02, 0x09, 0xfe, 0x05, 0x04, 0x00, 0x00, 0xfd, 0xfd,
  0x17, 0xf7, 0xfb, 0xf5, 0x09, 0x06, 0x05, 0x0b, 0x02, 0x03, 0x01, 0xf9,
  0x05, 0xfc, 0x01, 0x06, 0x08, 0xfb, 0xf2, 0xfe, 0xf9, 0xff, 0xfc, 0xfe,
  0x05, 0x00, 0xf7, 0x07, 0xfc, 0x03, 0x03, 0xfd, 0xff, 0xfc, 0xf8, 0xf6,
  0xfa, 0xf7, 0xf7, 0xfe, 0xfe, 0xf4, 0x01, 0xff, 0xff, 0xf0, 0xef, 0xfd,
  0x07, 0xfb, 0xfc, 0xfc, 0xff, 0xfd, 0x02, 0x04, 0x02, 0xf8, 0xfe, 0x04,
  0xf9, 0x0b, 0x0a, 0xfc, 0xfa, 0x0b, 0xef, 0xfe, 0xfd, 0x02, 0x05, 0xfd,
  0x08, 0xfc, 0x04, 0xff, 0x08, 0x03, 0x05, 0xfe, 0xf8, 0xf8, 0xfc, 0xf8,
  0xfc, 0xff, 0x01, 0xf8, 0xff, 0xf2, 0x00, 0xfe, 0xff, 0xef, 0x04, 0xfa,
  0xfd, 0xfa, 0x0d, 0x06, 0x03, 0x02, 0x12, 0x00, 0x08, 0x03, 0x02, 0x15,
  0x01, 0xe0, 0xe5, 0xfb, 0x00, 0x02, 0xfd, 0x02, 0x08, 0x00, 0xfa, 0xfc,
  0x01, 0x09, 0x02, 0xfd, 0xf7, 0xfb, 0xfb, 0x03, 0xfd, 0x06, 0xfe, 0x06,
  0x05, 0x07, 0x01, 0xf9, 0x07, 0x05, 0x11, 0xf1, 0x05, 0x02, 0x0b, 0x0d,
  0x06, 0x0d, 0x24, 0x06, 0x01, 0xf4, 0x0d, 0xfc, 0x10, 0x01, 0x09, 0xff,
  0xf4, 0x03, 0x0a, 0x00, 0x03, 0xfc, 0x02, 0x01, 0x13, 0x04, 0x02, 0x0d,
  0xff, 0xfc, 0xfa, 0xf4, 0x02, 0xe9, 0xf9, 0xe0, 0xf6, 0x02, 0x08, 0xe3,
  0x05, 0x01, 0x02, 0xeb, 0xd1, 0xf8, 0x08, 0x04, 0xff, 0x00, 0x04, 0x05,
  0x06, 0x08, 0x0d, 0x00, 0x03, 0x03, 0xff, 0xfe, 0x04, 0x04, 0x09, 0x01,
  0xf9, 0x04, 0x01, 0x03, 0x03, 0x03, 0xfc, 0xff, 0x03, 0x01, 0x0a, 0xfb,
  0xfd, 0xf9, 0xf8, 0xf1, 0xfa, 0xfb, 0xfd, 0xfd, 0xfd, 0xf5, 0xee, 0xfb,
  0x00, 0xf7, 0xe2, 0xfb, 0xf7, 0xf9, 0x03, 0xfd, 0x10, 0x14, 0x0b, 0x10,
  0x08, 0xff, 0x13, 0x00, 0xfe, 0x00, 0x02, 0xff, 0x09, 0xfb, 0xfc, 0xfe,
  0x02, 0x04, 0x08, 0x01, 0xf3, 0x13, 0x00, 0x0a, 0x13, 0xfe, 0xff, 0xf8,
  0x06, 0x05, 0xf8, 0xfb, 0x07, 0x03, 0x02, 0xfb, 0x0a, 0xfa, 0xfb, 0xf9,
